<pad>
<s>
</s>
<unk>
<|startoftext|>
<|separator|>
<|endoftext|>
▁t
▁a
ou
he
in
re
▁I
▁s
▁w
ha
▁y
▁you
▁the
▁m
on
▁c
▁i
er
▁b
▁to
ll
▁d
▁f
or
ing
an
▁p
es
▁l
hat
ve
▁g
nd
▁o
▁n
om
it
▁W
en
ow
▁ha
et
ar
st
▁T
at
▁in
▁it
ay
ed
le
▁th
is
▁of
▁is
▁and
ke
ot
▁be
ic
▁Y
se
▁for
▁e
ld
oo
▁re
▁on
▁have
▁do
▁h
▁we
▁he
▁that
ut
▁H
gh
▁me
ver
id
as
▁li
al
ould
out
ri
▁A
▁are
▁your
ght
all
▁S
▁u
▁can
ac
ion
ent
ill
▁st
▁ne
▁O
ome
ly
▁M
ro
▁an
ir
▁my
▁se
▁go
im
▁like
▁It
▁k
ith
ad
▁We
▁You
ch
▁C
▁What
▁D
han
▁The
▁with
ood
▁ab
▁this
ust
ter
▁B
▁so
ink
▁j
ant
our
am
ally
▁N
very
▁Yes
▁at
▁about
ake
▁su
▁think
▁don
▁will
ce
her
▁not
▁get
▁sh
▁kn
op
ry
ct
▁know
▁wor
ea
▁was
▁but
ook
th
▁That
▁what
ur
ore
▁see
▁there
▁How
▁He
ble
ice
▁as
hank
ra
nt
▁all
ge
pp
▁some
▁want
ime
▁ex
right
▁com
ind
▁L
▁good
ase
us
ight
▁any
▁one
▁al
▁or
▁just
ation
▁would
il
▁right
ive
▁pro
▁wh
art
▁very
one
▁time
ul
▁de
▁Do
▁too
▁G
est
▁did
▁Well
lease
▁out
ate
▁really
▁Thank
rom
▁need
▁pl
▁they
▁work
▁mu
ess
▁No
qu
ong
▁here
ine
▁te
▁up
ure
hen
▁going
ast
▁much
ck
ain
▁sp
▁am
▁But
▁Oh
▁E
ment
▁look
day
▁P
if
▁if
ers
ort
▁co
▁our
▁take
▁r
ig
ack
el
ound
any
ie
▁from
os
un
▁us
end
▁F
▁comp
ard
▁fe
▁should
▁please
and
▁J
lp
fe
ays
ear
▁con
▁help
▁now
▁lo
ning
▁af
▁Wh
reat
▁no
hing
▁R
▁mo
▁cl
ite
are
▁how
um
▁more
ame
▁new
▁off
▁them
▁qu
▁got
here
res
ick
▁been
▁int
ak
▁And
thing
▁v
▁1
▁make
▁pe
ity
ree
▁ro
ob
omet
▁ag
ople
▁Can
ol
▁Is
mp
▁could
ies
▁she
use
▁when
ous
ep
ag
ass
ount
▁people
▁lot
red
▁every
▁her
▁OK
▁over
▁by
ish
▁Th
▁has
▁che
▁then
▁en
ther
▁tw
▁bu
▁sa
▁well
row
▁somet
▁sure
▁bus
▁wee
▁tr
00
▁call
▁tell
act
ough
▁Let
▁come
per
▁ar
▁ch
▁had
ist
irst
▁bet
▁does
▁So
▁thing
ven
▁great
der
orry
▁day
ci
▁year
lf
able
▁May
▁back
xt
▁him
▁cour
▁after
▁Good
▁long
ud
▁V
▁They
age
▁give
ving
▁let
▁Are
blem
eah
▁pre
▁problem
oy
▁My
▁other
be
itt
▁Why
ber
▁way
pe
alk
▁If
cc
▁job
▁won
▁today
ach
▁only
▁sir
▁There
▁Ha
▁something
▁yes
ide
▁two
▁room
ty
▁first
▁pr
▁say
▁app
oney
▁course
▁This
▁ad
▁gu
ool
▁Ch
riend
▁Here
ually
ace
so
▁many
ab
▁try
ary
▁kind
▁2
▁didn
▁Mr
ich
▁feel
▁week
pt
own
▁part
ress
ose
▁pay
ater
other
▁br
ue
▁happ
▁next
ance
▁car
▁Yeah
▁better
▁love
ark
orning
▁fl
▁find
▁Ok
▁buy
▁mean
▁company
▁per
ng
▁Thanks
▁last
▁anything
▁may
▁chan
▁were
em
▁Sure
ought
▁sorry
▁morning
ady
ere
ail
ause
▁lea
▁nice
▁money
▁tra
▁meet
ert
▁also
▁ask
▁who
▁bec
▁ke
fore
▁his
▁res
▁Have
ounds
▁id
▁than
▁check
erv
ittle
▁Would
way
▁little
▁sm
▁un
▁why
▁must
ways
▁Don
orrow
▁min
▁man
▁start
▁before
▁friend
ait
▁wr
▁always
urn
▁use
iz
get
ign
ather
atch
▁thank
erest
▁She
▁bl
▁dif
▁mon
▁down
ise
▁imp
pen
▁har
▁home
du
▁interest
llo
▁Chin
▁again
ful
ope
▁le
▁In
orm
ff
ars
▁play
ans
▁When
▁month
▁Ve
ition
▁things
▁where
▁acc
▁dis
ade
vie
▁tom
ting
▁Hello
▁Did
ile
mer
▁night
▁put
▁minut
▁still
▁these
▁name
self
▁sch
▁cha
▁talk
iss
ost
▁most
▁Where
▁tomorrow
▁Not
oss
nder
▁idea
▁their
ip
▁U
▁All
▁school
eak
▁Ex
▁food
oin
ft
▁hard
fere
od
av
ire
▁never
▁because
▁wait
▁class
▁doing
▁Could
▁into
▁dep
▁show
▁few
ny
▁dr
▁big
ese
▁fin
▁3
ang
▁best
▁days
▁hope
ouse
ction
▁rec
▁bad
ner
ild
▁sc
▁inter
▁ph
▁$
▁Hi
ock
▁Re
▁under
▁el
▁stud
▁Please
ried
▁care
▁hour
▁keep
ily
▁book
▁pa
cl
ious
▁Just
▁gr
▁cont
▁years
lish
▁Then
ond
ence
▁spe
igh
▁fam
▁eat
▁else
▁around
▁card
iness
▁mind
ne
imes
▁three
▁Eng
▁fine
▁num
▁5
port
▁plan
▁seem
artment
vel
ves
▁differe
hed
▁Be
▁old
gg
▁hot
hes
▁sounds
les
▁quite
▁hand
ult
▁doll
raid
▁isn
ap
▁Of
▁afraid
form
▁looking
▁doesn
▁rest
▁house
ertain
ctually
we
▁bel
cuse
▁happen
▁Maybe
oon
▁St
▁thought
▁working
▁order
▁said
▁business
joy
▁dec
erson
▁count
▁English
cial
▁tak
▁made
ieve
▁sha
▁soon
▁speak
▁supp
▁K
▁rem
▁office
ations
▁stay
▁drink
▁gl
▁sal
ank
▁Really
ull
wn
ten
▁even
▁number
▁another
ions
▁ra
ord
▁eas
▁haven
fer
▁late
▁place
▁enjoy
▁same
come
▁wonder
▁hear
▁heard
und
▁char
oth
▁cle
ax
oint
tty
ible
▁might
▁minutes
▁change
ash
▁lear
▁Excuse
noon
▁att
▁afternoon
▁pass
▁which
ork
ix
uck
ple
▁fun
▁Now
ee
▁dri
▁guess
▁mak
▁ton
▁ear
▁Chinese
ffe
▁price
lic
▁mat
▁din
▁each
ye
▁such
▁dollars
▁different
og
ready
▁already
ated
▁mom
▁rel
vers
▁watch
▁person
▁everything
ell
▁des
▁inv
▁sec
▁yet
lcome
▁eve
▁enough
▁read
ctor
▁bre
▁import
▁done
▁leave
▁account
▁pretty
▁getting
icket
▁bring
▁sk
▁while
▁believe
▁serv
▁gir
▁vis
▁Ne
stand
▁stop
anc
ember
▁ins
▁ticket
ents
▁high
ertainly
li
ps
▁comput
▁tonight
▁bit
▁cost
▁produ
▁friends
ict
ory
▁dinner
▁usually
▁fr
als
aut
▁Okay
▁Your
ons
▁list
▁worry
ular
▁looks
ize
ren
▁fo
▁beaut
▁those
▁turn
▁later
▁party
▁bo
pect
▁set
▁ready
▁Will
▁wrong
▁happy
▁Any
▁ap
▁ser
▁ter
rough
▁ever
▁ok
▁train
▁away
▁live
ect
▁mar
up
▁phone
▁shop
ub
▁important
▁meeting
▁air
▁coll
▁used
▁thanks
▁understand
iv
▁free
▁left
▁la
▁through
cept
▁Hey
▁cou
▁open
▁add
▁maybe
▁coming
▁family
▁run
▁disc
▁inform
ical
▁evening
ok
iday
▁exc
▁city
▁tri
uan
mm
▁10
iting
▁reg
view
▁sign
▁small
▁Fr
▁movie
▁ten
ities
▁mus
gether
ably
ments
▁easy
▁exper
▁often
▁beautif
ia
arket
ian
▁end
▁news
▁learn
▁computer
its
▁miss
▁Jo
kend
▁special
▁weekend
▁4
aur
lor
▁own
▁Look
▁far
▁beautiful
▁kid
▁five
▁pres
▁Al
ason
pens
meric
▁6
▁went
ved
▁send
▁told
▁offer
ery
▁form
▁quest
▁Americ
▁fav
▁seems
▁someone
▁walk
ward
▁str
▁prom
▁Which
▁child
▁country
ience
▁world
▁moment
▁ac
fect
▁life
▁rece
bably
aurant
▁service
ody
ffee
▁real
▁true
▁break
ited
▁Sorry
▁having
nts
▁glad
▁expens
ping
▁Great
▁nothing
▁agree
old
▁As
▁For
gr
leas
▁remember
▁8
ntil
oor
▁together
ivers
▁able
pl
▁ret
▁interested
▁cons
air
mpl
▁hours
▁yourself
▁7
▁pol
mploy
▁matter
▁Who
ouble
▁poss
▁weather
▁coffee
ince
ired
▁prefer
▁water
▁restaurant
ife
▁busy
▁favor
▁girl
▁interesting
room
▁pos
▁Come
▁pick
▁until
ates
▁win
▁sing
terday
▁China
▁myself
▁welcome
▁information
hn
▁being
ager
reet
▁four
▁music
000
▁seat
▁thinking
▁interview
most
ract
ating
▁sl
fic
ial
unch
▁guy
▁sur
▁product
▁bank
▁both
▁seen
▁study
enty
▁inst
▁luck
▁pleas
▁probably
▁Wow
▁cor
▁fill
▁apartment
▁ma
▁trans
▁actually
▁yesterday
▁bed
▁bir
▁market
▁expensive
▁happened
▁Does
iet
alth
ices
▁John
▁cold
ely
atur
▁lar
▁spend
actly
▁cred
▁9
▁cut
▁Mary
▁expect
▁compl
ts
leep
▁hur
▁met
▁comm
▁thir
ever
▁ty
▁adv
▁rain
ph
ient
▁cook
▁av
▁ext
▁sit
▁clean
▁ago
▁war
▁exam
▁doctor
▁See
▁found
▁To
ding
▁stand
▁travel
ib
ides
▁wife
▁table
▁bought
▁called
omm
arents
au
az
▁sw
▁beg
▁fil
▁visit
▁second
▁By
▁wish
▁charge
nce
▁Sm
ange
▁trip
▁experience
cy
osed
▁near
▁almost
▁half
ual
▁position
▁Tom
▁bag
▁cho
▁boss
▁light
▁possible
▁sub
▁terri
ike
ors
tern
▁suit
▁short
▁serious
▁An
ific
time
▁ind
▁head
ention
▁Actually
clud
▁ele
▁deal
▁qual
ied
▁fore
▁park
▁teac
▁parents
ject
▁ent
ggest
▁credit
▁suggest
ath
▁Every
▁flight
▁perfect
▁yuan
▁employ
body
▁cash
ef
▁-
▁vac
▁clot
▁full
▁once
iversity
▁birth
▁makes
▁manager
ither
▁fast
▁dress
▁fact
▁team
▁wear
▁hotel
▁times
▁though
▁wanted
▁"
ces
▁New
▁health
▁everyone
▁bas
ished
▁Fine
▁Certainly
oes
▁cur
▁bill
▁move
▁color
▁taking
ger
▁lost
▁hat
▁pack
te
▁cr
▁med
▁date
▁sever
▁weeks
▁department
▁talking
br
ries
▁saw
where
▁intern
▁several
erc
rist
ures
▁Our
▁cam
▁minute
ages
work
▁pop
▁hair
▁okay
▁store
ott
▁paper
▁reserv
▁case
line
reen
uring
▁game
▁ve
▁sum
ustom
▁Right
▁Af
▁started
▁20
ffic
ational
▁calling
▁clothes
ont
ues
oose
▁sell
ss
▁%
ream
aught
ident
▁Smith
ball
▁bro
▁wouldn
,000
ense
jing
▁pain
ics
▁At
▁Me
▁red
ortun
▁large
▁comes
▁includ
▁rather
ines
▁wind
▁sleep
▁Un
▁oh
oking
▁mach
▁appre
▁early
▁couldn
▁birthday
▁begin
▁colle
got
▁One
▁ass
▁swe
ommend
▁exerc
▁lunch
▁Friday
▁married
▁favorite
▁;
▁dire
▁took
▁diffic
▁appreci
▁teacher
na
ided
side
▁aren
▁line
▁avail
▁feeling
▁15
ower
▁says
▁wasn
▁months
▁recommend
pr
hip
▁Ab
▁point
▁reason
▁exactly
cell
▁sim
▁street
▁children
ently
▁rent
▁trying
▁shopping
mb
▁pie
▁tast
▁write
cri
▁since
zy
cially
▁whole
▁accept
▁custom
▁listen
▁making
▁return
ital
llow
▁hon
▁ref
▁appoint
▁problems
▁boy
▁letter
osit
▁act
▁six
▁conc
▁without
▁available
bye
▁Bei
ision
▁came
▁Beijing
raw
▁After
▁summer
ush
ames
▁along
▁reservation
▁es
cess
ming
▁conf
▁couple
▁wonderful
man
olut
▁det
▁loc
▁least
▁young
▁living
▁difficult
ced
gram
▁grad
▁prep
undred
▁forget
▁lik
▁books
▁TV
▁Mon
▁tot
▁test
ling
▁main
▁quick
▁products
haps
ider
▁art
▁wom
▁choose
▁sy
orts
▁report
ier
uss
▁top
aturday
▁during
▁sometimes
icy
aper
band
▁its
▁Some
▁sales
▁inc
▁tax
▁less
▁build
pecially
▁hundred
adam
▁size
▁word
▁yeah
▁program
▁(
oup
▁12
▁chance
▁pleasure
▁)
▁sn
rown
▁bar
▁tea
▁hold
▁drive
▁appreciate
led
uff
▁Per
▁pict
▁Sounds
ms
▁ca
head
▁tired
▁certainly
▁rep
▁present
ret
ately
▁Very
▁tried
cellent
▁supposed
▁sty
▁Take
▁hate
▁tour
▁catch
▁seven
▁appointment
angu
▁pri
ility
▁floor
▁trouble
▁question
ness
urance
▁hus
▁husband
▁waiting
▁Miss
▁means
▁either
▁On
▁maj
▁pur
▁requ
▁Saturday
▁exercise
ens
oll
less
▁def
▁side
▁outside
▁terrible
▁Sh
▁post
▁super
▁dog
inite
ister
▁cool
▁apply
▁chang
▁college
ave
▁fif
▁face
▁gets
▁mess
▁sick
▁asked
itc
▁ed
mail
clock
▁First
▁close
▁recei
▁decided
▁contract
ets
ume
olog
▁gen
solut
▁lose
▁langu
▁ey
▁hol
▁needs
▁vacation
▁especially
cu
▁men
▁bott
▁resp
▁extra
▁popular
▁insurance
ug
▁Bec
▁key
▁kids
▁allow
▁shall
▁winter
▁forward
▁cop
▁prof
▁worked
ton
▁50
▁opp
▁Because
▁deposit
▁university
ring
vies
▁arri
▁ones
▁black
▁major
▁mother
▁consider
▁questions
by
▁cra
▁sun
▁attend
solutely
▁traffic
▁box
▁join
▁mine
▁follow
▁movies
▁receive
ween
▁mil
▁tou
astic
▁cent
▁past
▁relax
▁Christ
▁Anything
ature
▁forgot
▁American
▁pub
▁eyes
▁foot
▁rate
▁eight
▁complet
▁30
▁cond
esides
▁Somet
▁salary
▁thirty
▁personal
▁Sha
▁pract
▁twenty
▁foreign
▁finished
▁aw
▁fix
▁father
▁finish
cle
ised
ives
▁Bye
▁prin
▁wine
▁chick
▁clear
▁machine
▁speaking
▁fit
▁sale
▁between
ru
irt
▁ball
▁ahead
▁stuff
vert
▁Bob
▁kinds
initely
▁partic
ai
de
ared
▁tele
▁dance
▁weight
ew
ove
resh
ross
▁100
▁paid
▁gradu
▁anyway
▁suppose
ote
▁white
▁depend
▁building
▁condition
ead
▁Sir
▁lots
▁online
▁quality
oke
▁whe
▁goes
▁prov
▁receipt
▁Go
▁bor
▁fig
▁stra
stem
▁Nice
▁deli
▁fall
▁type
▁honest
ins
hang
ield
outh
▁dro
▁Wait
▁docu
▁door
▁front
▁become
▁discuss
ses
ung
ully
▁Jan
▁save
▁swim
ousand
▁takes
▁detail
▁America
▁reading
rat
▁aff
▁taken
▁window
▁Welcome
▁excellent
me
aby
min
omp
osp
ric
▁Li
▁gif
▁shoes
▁system
▁playing
▁passport
irm
▁Tw
ator
itchen
▁amount
uc
mas
arch
▁bath
▁sound
▁anyone
▁conven
▁Alright
▁address
▁chicken
▁kitchen
▁tickets
▁Pe
cent
▁mail
▁goods
▁thousand
ills
▁cat
▁mag
▁press
▁respons
▁Z
aces
▁ann
▁phot
ulations
▁impress
▁discount
▁ans
▁Jack
▁temp
▁sports
▁York
ashion
▁crazy
▁veget
▁single
▁exp
▁kidding
▁project
▁shouldn
con
fort
▁Mom
▁Tell
▁About
▁fresh
ants
ighb
ings
▁200
ables
velop
▁expl
▁gone
▁sche
▁treat
▁wants
▁worth
▁neighb
▁instead
els
dule
rent
▁style
▁choice
▁Perhaps
▁mention
▁recently
▁straight
IB
ees
▁RIB
▁arr
▁soft
▁works
▁planning
▁students
▁transfer
▁watching
▁countries
uth
▁Pro
▁cup
▁medic
▁total
ountain
▁handle
▁brother
▁perform
:00
▁Ah
▁Sp
▁env
▁mid
▁answ
▁road
▁gener
▁surpr
▁advice
▁famous
▁lovely
▁station
▁internet
▁Christmas
30
ped
ption
▁lucky
▁Monday
▁Sometimes
bs
to
fully
▁baby
▁fish
▁madam
▁stock
▁manage
▁training
pped
vern
▁son
▁grow
▁step
▁plans
▁design
▁double
▁exciting
oud
▁blue
▁pair
▁intro
lfriend
▁police
▁record
▁opportun
▁sent
▁sort
▁running
▁convenient
ium
ative
▁town
▁Shall
▁girlfriend
col
▁Ms
nter
▁Dad
▁area
▁hands
▁taste
▁public
▁strong
▁careful
▁leaving
▁promise
▁definitely
ency
fast
▁sat
▁var
▁hist
▁soup
▁using
▁Besides
▁holiday
▁language
▁schedule
▁hu
▁Its
▁eng
▁hit
▁ste
edding
▁Intern
▁percent
▁decision
har
ots
ral
▁ben
▁gave
▁wall
▁local
▁sister
fortable
▁whether
mit
more
▁low
ccess
▁libr
▁board
▁elect
▁heart
▁sense
▁invest
▁student
▁success
▁Se
▁equ
▁mem
hange
ondon
▁desk
▁games
▁London
▁applic
▁others
▁promot
▁contact
ys
▁Ro
erve
▁Comp
ctions
▁These
▁afford
▁asking
▁breakfast
▁25
▁US
▁lu
▁Jim
rench
▁amaz
▁dist
▁guys
▁heav
▁item
itting
▁woman
▁advert
▁library
▁particular
eter
▁Tai
▁deg
▁del
▁hig
▁ide
▁With
▁hosp
▁mist
▁sand
▁newsp
▁quiet
▁rooms
▁longer
▁driving
▁wedding
▁employees
▁Dav
▁fru
ories
uture
▁film
▁meat
▁nose
▁priv
▁ship
▁delic
▁decide
▁quickly
ude
rect
ters
▁Acc
▁ice
▁pot
▁cars
▁song
▁plane
▁answer
▁govern
▁wondering
land
▁Ste
▁hor
▁pen
▁trad
▁costs
▁eating
▁future
▁fashion
▁introdu
hai
▁div
▁val
▁land
▁lead
ongrat
▁glass
▁places
▁amazing
dle
gan
▁Cl
▁Mrs
▁law
▁sol
▁cann
▁fair
▁gift
ording
▁secret
▁develop
▁excited
▁profess
▁worried
▁football
▁studying
aff
rol
ffect
iving
▁Bill
▁danc
▁brand
▁cheap
▁girls
▁magaz
▁smell
▁direct
▁pounds
▁depends
▁regular
cel
ior
ppy
aret
▁leg
▁Most
▁knew
▁carry
▁hurry
▁touch
▁People
▁plenty
▁classes
▁example
▁age
▁dear
▁dream
▁field
▁grand
▁impro
▁seeing
▁anymore
ma
▁z
sel
▁Tr
ache
apan
teen
▁lat
ising
▁educ
▁kill
▁blood
▁camer
▁envir
▁piece
▁effect
▁learned
▁smoking
isf
▁Br
akes
ched
▁Sund
▁beer
▁furn
▁clock
▁cover
▁green
▁French
▁compan
▁enjoyed
▁picture
▁attention
▁absolutely
ongratulations
▁fly
▁hurt
▁nerv
▁Japan
▁final
erature
▁necess
▁bedroom
▁hospital
▁difference
mon
airs
▁cas
▁dam
▁Many
onment
▁beach
▁guest
▁heavy
▁space
itional
▁Anyway
▁lately
▁writing
▁exchange
▁government
chn
pin
urs
▁Get
▁Hmm
▁egg
▁fat
▁imm
▁David
▁daught
▁except
▁simple
▁Nothing
▁correct
▁current
▁telling
▁environment
den
eng
iew
son
vent
▁Che
▁gra
▁hop
▁hum
anger
▁diet
▁skin
▁likes
▁figure
▁prices
▁satisf
▁saying
▁arrange
▁payment
▁mountain
▁performance
▁/
:30
cha
▁clim
▁club
▁flow
▁view
▁earli
▁organ
▁Sunday
▁compet
▁result
▁medicine
▁companies
▁comfortable
ah
▁Two
aster
▁cake
▁oper
uesday
▁teach
▁stress
▁counter
▁learning
▁swimming
▁somewhere
▁11
▁ri
▁fre
▁Give
▁Mike
ically
▁breat
▁relations
▁vegetables
unk
▁Ke
▁fa
▁pat
conom
▁anim
▁camp
▁jobs
▁opin
selves
▁sight
▁staff
▁words
▁contin
▁corner
▁within
▁Tuesday
▁airport
▁parking
▁private
▁delicious
io
sh
mes
ned
▁ID
▁im
aged
▁cig
▁eye
▁fire
▁funny
▁given
▁finally
▁history
rees
road
▁aut
ggage
▁star
▁taxi
▁drinks
▁cheaper
▁cooking
▁details
▁healthy
▁nervous
▁daughter
bo
oub
▁ob
iced
ored
▁Wang
▁copy
▁slow
▁warm
▁cream
▁sweet
▁assist
▁buying
▁cannot
▁inside
▁Goodbye
▁luggage
▁application
dy
ym
icle
▁Isn
▁Was
▁mot
ients
▁match
▁mater
▁shirt
▁driver
▁notice
▁resume
cription
▁provide
▁received
ken
ron
▁Gr
ancy
hind
▁rid
phone
▁Next
▁techn
▁latest
gy
▁Q
cks
ele
ina
ones
ware
▁ride
▁tall
ration
▁cents
▁fruit
▁incre
▁items
▁behind
▁concert
▁prepare
▁documents
▁Sus
▁bur
▁meal
▁benef
▁higher
▁proper
▁regist
▁Company
▁message
▁package
▁overtime
▁sometime
▁Everything
amb
ney
king
ional
▁menu
▁nine
▁snow
▁broke
▁liked
▁round
▁salad
▁spent
▁yours
ertific
▁bother
▁skills
▁subway
▁attract
▁cigaret
▁necessary
aw
▁hi
▁dead
▁mill
▁state
▁story
▁throw
▁Steven
▁courses
▁happens
▁improve
▁complain
ili
▁Su
ogra
▁Dan
▁gym
▁hung
▁loan
▁Susan
ilities
▁chocol
▁against
▁earlier
▁explain
▁accident
▁customer
▁customers
che
edi
iod
wan
▁19
▁Bl
▁ju
▁Hot
▁fur
▁sea
▁conne
antastic
▁brought
▁control
▁Internet
ortunately
ze
▁De
▁Dep
▁iss
▁beef
▁draw
▁bread
▁third
▁indust
▁middle
▁period
▁policy
▁delivery
▁practice
▁newspaper
ale
ica
por
gage
illy
onna
▁Day
▁dry
▁lab
▁pan
ution
▁quit
▁alone
▁worse
▁Taiwan
▁borrow
▁flowers
▁opinion
▁require
▁bathroom
bit
▁ur
▁God
▁cal
cribe
▁Didn
▁Make
▁speed
▁truth
▁apolog
▁paying
▁purcha
▁pictures
co
iqu
izz
▁Rem
▁mod
▁ord
▁squ
▁typ
▁Jane
▁hang
▁Those
▁appro
▁cards
▁withd
▁looked
▁process
▁willing
▁University
▁completely
▁management
--
ety
rew
ump
▁cap
▁sci
iture
▁knows
hanghai
▁charac
▁dishes
▁hungry
▁season
▁checking
▁promotion
▁international
ien
ips
let
set
▁18
▁Or
ered
ized
▁occ
▁sho
alent
▁Mark
▁ring
▁rush
▁webs
▁Brown
▁gonna
▁ideas
▁stick
▁twice
▁immedi
▁turned
▁withdraw
▁tv
▁fee
pping
▁milk
▁pull
▁roll
▁sold
ursday
▁honey
▁moved
▁natur
▁smart
▁women
▁dollar
▁remind
▁changed
▁section
▁telephone
eed
▁40
▁Mic
▁lic
▁oil
▁sil
itive
▁dark
▁sett
essert
ission
▁enter
▁fight
▁print
▁terms
▁trade
▁cheese
▁commun
▁player
▁alright
▁everybody
▁opportunity
▁relationship
lex
orn
five
ials
▁gas
▁ill
elebr
ference
▁abroad
▁boring
▁celebr
▁checked
▁dessert
▁support
▁homework
▁education
my
oc
sm
nis
ires
▁Jen
▁Mar
▁gar
▁unf
▁drop
estern
▁offic
▁booked
▁bottle
▁camera
▁common
▁danger
▁degree
▁missed
▁further
▁results
▁chocolate
▁furniture
▁”
hib
ket
▁Um
ches
ured
▁dad
▁Bank
▁flat
▁imag
▁poll
▁redu
▁rich
▁rout
ograph
▁steak
▁easier
▁spring
▁subject
▁Shanghai
▁anywhere
▁pressure
▁Congratulations
go
bed
eag
ole
unt
▁vot
▁Only
▁Yuan
▁body
▁dogs
▁kept
▁note
▁safe
▁wast
▁Hotel
▁activ
▁divor
▁juice
▁miles
▁share
▁broken
▁fifteen
▁Thursday
▁introduce
une
uro
ules
ified
▁Park
▁coat
▁pity
▁ways
▁block
▁paint
▁seats
▁econom
▁certain
▁services
▁beginning
▁responsible
XX
amp
elt
vin
rowd
arden
vious
▁Even
▁Like
▁cell
▁dish
▁stom
▁crowd
▁gives
▁semes
▁caught
▁allowed
▁animals
▁drinking
▁Ad
book
▁bal
▁dra
▁rad
oming
▁Room
▁doub
▁spec
friend
idence
▁Happy
▁White
▁Street
▁instru
▁moving
▁tennis
▁colleag
▁neighbor
▁semester
▁according
ks
▁Ma
imum
irty
izza
▁col
▁wat
wards
▁Last
▁bags
▁cart
▁chat
▁clos
▁cult
▁fail
▁feet
▁fund
▁till
▁wake
▁Peter
▁charg
▁fifty
▁forty
▁smoke
ibility
▁career
▁collect
▁dancing
▁Remember
▁whatever
▁temperature
ilt
pri
▁Pa
▁je
bers
over
used
▁Car
▁His
▁fac
▁Aust
▁Hong
▁deep
▁quar
▁situ
▁wash
ancial
ishing
▁Green
▁power
▁score
▁shows
▁Should
▁arrive
▁starts
▁Exactly
▁mistake
▁noticed
▁walking
gar
nel
the
▁est
▁hob
▁par
▁une
ances
▁band
▁scen
▁Never
▁fault
▁marri
▁motor
▁raise
▁spicy
ination
▁concer
▁invite
▁confirm
▁staying
▁Everyone
▁fantastic
eth
ixt
oof
zen
▁16
gent
gest
arant
▁Ital
▁poor
▁Since
▁basket
▁faster
▁hoping
▁However
▁schools
▁starting
▁Gu
▁Te
▁ev
hood
lect
oice
orge
▁Lin
▁flu
▁non
anish
ology
▁base
▁hous
▁rese
▁spot
▁chall
▁email
▁invol
▁lower
▁bottom
▁easily
▁giving
▁nights
▁saving
▁website
▁shipment
▁standard
▁conditions
▁immediately
app
nes
oid
ute
▁Ar
irts
ises
ying
▁500
▁Jul
▁ang
▁dut
adays
board
estiv
▁Hope
▁born
▁vide
action
▁calls
▁States
▁license
anna
gain
▁Man
▁bat
▁net
▁Euro
▁Paul
▁eggs
ground
▁earth
▁rules
▁spare
▁tough
▁trust
▁Austral
▁factory
▁natural
▁totally
▁apologize
▁listening
aim
▁Say
▁bon
▁bra
▁Keep
▁fare
▁felt
▁jour
▁prop
▁Today
▁boxes
▁doubt
▁upset
▁passed
▁expected
▁friendly
▁included
▁increase
▁painting
▁advertise
▁computers
▁dangerous
sc
int
umn
ilar
lymp
▁Ind
▁Wed
▁bud
▁tie
▁rice
▁vote
nesday
vision
▁Honey
▁Madam
▁Olymp
▁Three
▁cross
▁pieces
▁finding
▁guarant
▁perhaps
▁sitting
▁sweater
▁washing
▁graduate
▁industry
ertificate
▁Wednesday
▁reasonable
ley
▁Uh
ined
read
wise
▁Ger
▁dig
▁due
iliar
vered
▁norm
▁laund
▁sandw
▁suits
▁waste
▁lights
▁needed
▁covered
▁expecting
▁financial
▁including
▁marketing
▁Absolutely
▁traditional
ows
tes
ists
▁Ann
▁Rob
▁tur
mbers
urity
▁Also
▁decl
▁hasn
▁huge
▁loud
▁mood
▁visa
▁exhib
▁group
▁video
▁center
▁garden
▁express
▁himself
▁include
▁members
mployment
▁benefits
▁familiar
▁marriage
▁prepared
▁transport
▁0
▁“
off
uts
▁Pl
hand
tain
vell
▁Har
▁Off
▁cab
▁tow
dered
ledge
▁Year
▁weak
▁moder
▁pizza
estival
▁United
▁disapp
▁excuse
▁Spanish
▁baggage
▁helpful
▁invited
▁laundry
▁million
▁numbers
▁pleasant
▁purchase
▁research
▁boyfriend
▁colleagues
▁—
cer
een
ply
rib
uce
orth
rest
▁Bar
▁Mac
▁Sar
▁god
▁kil
▁rob
aches
itude
light
ooper
▁cand
▁carp
▁cause
▁tight
itation
▁bigger
▁formal
▁ground
▁nobody
▁played
▁stayed
▁clients
▁secretary
▁surprised
▁traveling
▁professional
ony
ugh
▁ru
bing
idge
pper
▁300
▁Pre
▁enc
▁los
▁mix
iring
▁text
▁wood
market
▁angry
▁bonus
▁loves
▁mouth
▁cancel
▁leaves
▁deliver
▁general
▁magazine
▁successful
lo
ued
vey
▁14
▁24
▁PC
▁da
acks
erry
itch
▁Bet
▁Mmm
▁arm
▁mis
cture
itted
itten
▁From
▁hire
▁neck
▁port
▁appli
▁built
▁level
▁lives
▁meals
▁usual
▁bright
▁engine
▁guests
▁advance
▁helping
▁wearing
▁describe
▁document
▁experien
▁agreement
▁impressed
▁television
50
▁X
iam
▁13
▁80
cond
goti
ptop
rill
▁Her
▁ant
▁cri
gency
▁Once
▁Work
▁fell
▁tree
▁champ
▁creat
▁foods
▁keeps
▁radio
▁helped
▁mostly
▁nearby
▁nearly
▁negoti
▁photos
▁useful
▁keeping
▁stories
▁various
▁cleaning
▁continue
▁software
▁surprise
▁visiting
▁situation
▁attractive
▁everywhere
▁suggestions
▁prescription
ds
upid
▁Air
▁Par
▁bow
▁fax
▁lit
▁beat
▁ener
▁firm
▁phys
▁pool
▁Jenny
▁brown
▁buses
▁fried
▁issue
▁noise
▁shape
▁sport
▁campus
▁colors
▁search
▁Account
▁crowded
▁imagine
▁stomach
fl
▁,
▁:
com
ify
ipe
▁Qu
pril
urch
▁Cor
▁Won
▁ach
▁emp
▁owe
▁pet
▁ski
▁wra
night
rible
▁dest
▁mark
atives
ivered
▁April
▁Canad
▁among
▁cable
▁helps
▁human
▁serve
▁Office
▁review
▁simply
▁stores
▁ability
▁monthly
▁reserve
▁strange
▁Japanese
▁machines
▁nowadays
▁programs
▁delivered
▁knowledge
▁president
iel
ops
ror
▁Em
▁et
rant
▁ads
▁bye
▁rom
▁wet
place
▁cere
▁cock
▁heat
▁math
▁meas
▁prot
iction
▁older
▁potat
▁sugar
▁butter
▁export
▁orange
▁retire
▁urgent
▁plastic
▁everyday
▁headache
▁graduated
▁magazines
▁basketball
▁supermarket
isk
icks
ison
▁Try
▁adm
▁jam
acket
ering
erved
▁Hold
▁drug
▁file
▁held
▁orig
▁yell
arling
ptions
stairs
▁guide
▁laugh
▁meant
▁parts
▁silly
▁toast
pection
▁across
▁button
▁cooper
▁flying
▁medium
▁points
▁shower
▁changes
▁watched
▁written
▁electric
▁specific
▁Australia
▁activities
▁understanding
▁Lu
▁pm
ctob
▁Tra
▁sle
▁tor
rency
▁Cent
▁crit
▁load
ctober
▁equip
▁films
▁wanna
▁Europe
▁cities
▁harder
▁hardly
▁modern
▁origin
▁refund
▁scared
▁stupid
▁arrived
▁complic
▁produce
▁respect
▁selling
▁Tomorrow
▁director
▁languages
▁materials
kes
▁Am
▁El
▁Hu
▁pu
ners
ownt
seum
▁Cal
▁cir
▁eff
▁huh
▁map
▁ran
aking
inger
▁agre
▁fees
▁sixt
▁claim
▁marry
▁reach
▁carpet
▁damage
▁laptop
▁museum
▁strict
▁Whatever
▁assistant
▁conference
BA
ls
ape
oun
rem
uri
val
vis
dden
tery
▁Fin
▁sad
orter
ulous
▁Kong
▁More
▁bike
▁dial
▁emer
▁rock
▁stri
▁appet
▁autom
▁downt
▁dozen
▁hurts
▁known
▁limit
▁sauce
▁value
▁Monica
▁budget
▁church
▁closed
▁orders
▁square
▁sudden
▁talked
▁variet
▁Italian
▁bargain
▁biggest
▁digital
▁missing
▁organiz
▁smaller
▁communic
▁involved
▁national
▁suitable
▁celebrate
▁seriously
▁production
▁unemployment
▁opportunities
cut
len
new
▁90
▁En
hael
irus
▁abs
▁pap
mates
▁plus
▁push
▁stre
▁Black
▁Other
▁decor
▁effic
▁fever
▁fixed
▁model
▁Doctor
▁advant
▁asleep
▁assign
▁overse
▁talent
▁article
▁opening
▁ordered
▁science
▁similar
▁warrant
▁horrible
▁promised
sy
ane
att
men
▁60
ards
case
cast
orld
▁Joe
▁Res
▁pic
▁sky
▁vol
▁Prof
▁chem
▁cute
▁duty
▁shot
▁avoid
▁daily
▁feels
▁uncle
▁candid
▁corpor
▁achieve
▁savings
▁challeng
▁complete
▁downtown
▁ourselves
▁cigarettes
▁complicated
yd
ald
ird
nic
ury
▁Dr
▁Us
▁bi
▁po
amps
cing
isle
mber
ster
▁arg
▁ban
▁dem
▁lie
▁List
▁golf
▁page
▁pock
▁Paris
▁based
▁dirty
▁files
▁occas
▁roses
▁solve
▁voice
▁Daniel
▁Pretty
▁indeed
▁social
▁streng
▁clearly
▁minimum
▁packing
▁parties
▁younger
▁currency
▁overseas
▁character
▁guarantee
▁background
▁registered
ept
elve
ique
ples
▁cry
gging
inary
▁City
▁Were
▁bell
▁died
▁mall
▁pian
▁rare
▁shar
▁Alice
▁Grand
▁cases
▁stuck
ossible
▁encour
▁prepar
▁screen
▁forever
▁leather
▁located
▁players
▁directly
▁dressing
▁register
▁exhibition
▁invitation
da
acy
ama
hol
isa
▁00
▁ut
aker
amed
load
▁150
cient
idays
lines
▁Lucy
▁Thom
▁ages
▁bear
▁blow
▁cine
▁elev
▁fort
▁gold
▁hall
▁lift
▁surf
ources
▁Check
▁renew
▁track
▁Listen
▁wallet
▁Michael
▁October
▁stopped
▁studied
▁variety
▁sandwich
▁somebody
▁carefully
▁cigarette
▁concerned
▁satisfied
▁commission
▁certificate
▁neighborhood
ado
bly
iff
iol
see
▁Ge
year
▁Ben
▁Cur
▁Got
▁ble
▁die
▁lim
ached
aylor
icles
iforn
using
▁Both
▁Brit
▁fool
▁perf
▁Frank
▁awful
▁basic
▁sched
▁songs
▁trees
mercial
▁Person
▁breath
▁events
▁gotten
▁larger
▁meters
▁surely
together
▁pleased
▁raining
▁realize
▁settled
▁tourist
▁travell
▁expenses
▁inviting
▁positive
▁mountains
▁accounting
▁inspection
▁suggestion
▁registration
gn
uf
par
uly
xic
▁Le
hard
lies
okes
olle
▁Con
▁Has
▁Lee
▁emb
▁lay
istic
▁Cool
▁Rose
▁ears
▁gain
▁noon
though
▁aware
▁frequ
▁fully
▁roast
ception
▁Canada
▁France
▁German
▁arrest
▁beauty
▁centre
▁repair
▁survey
▁twelve
▁waiter
▁Profess
▁balance
▁connect
▁darling
▁Probably
▁holidays
▁strength
▁terribly
▁Americans
▁direction
▁impression
▁personality
▁presentation
10
12
ted
▁Er
bies
ceed
eral
ians
inda
indy
ites
ooth
tens
asons
iding
iling
▁boat
▁kick
▁pale
▁subs
▁torn
▁unit
atures
ipping
verage
▁South
▁World
▁aisle
▁chair
▁const
▁exams
▁hello
▁ident
▁loved
▁notes
▁rains
▁range
ifornia
▁action
▁client
▁papers
▁picnic
▁tastes
▁choices
▁figures
▁letters
▁quarter
▁accepted
▁accounts
▁attitude
▁changing
▁employee
▁security
▁Excellent
▁entertain
▁impossible
▁themselves
sp
zz
abl
ism
isy
▁Ph
agne
atic
hold
itor
ivid
play
sing
term
uses
▁120
▁Put
▁Sam
▁Unf
▁mad
▁nut
ardon
cohol
riger
ufact
▁Aren
▁Chen
▁Sept
▁Show
▁beha
▁code
▁comb
▁gate
▁host
▁keys
▁lady
▁lock
▁shut
▁silk
▁viol
ential
▁Cindy
▁Julia
▁apple
▁bills
▁cloth
▁ended
▁forms
▁lived
▁novel
▁plant
▁separ
ography
▁Before
▁George
▁Taylor
▁active
▁cinema
▁extens
▁profit
▁trains
▁England
▁Morning
▁Someone
▁besides
▁degrees
▁depress
▁goodbye
▁protect
▁request
▁western
▁becoming
▁elevator
▁includes
▁refriger
▁standing
▁According
▁Professor
▁September
▁Department
▁disappoint
▁restaurants
▁Unfortunately
▁transportation
erk
ero
ief
law
oms
▁Co
olen
rate
▁App
▁fed
epend
▁Time
▁jump
▁rude
▁self
▁thin
▁Jones
▁Sarah
▁exact
▁proud
▁storm
▁types
▁access
▁agreed
▁appear
▁highly
▁houses
▁joking
▁losing
▁normal
▁offers
▁opened
▁select
▁shirts
▁thinks
▁Perfect
▁contrib
▁dressed
▁putting
▁relaxed
▁boarding
▁divorced
▁enjoying
▁manufact
▁potatoes
▁previous
▁equipment
BC
ena
hou
key
▁Gl
▁er
ibly
mbur
nels
rupt
urse
▁Bel
▁Bus
▁Ric
▁bid
▁dum
▁foc
▁gun
▁pal
▁sen
▁sou
antic
rance
venue
▁laid
▁plum
▁purp
▁sens
▁slip
▁tail
▁Mexic
▁Quite
▁Zhang
▁basis
▁crime
▁legal
▁peace
▁sides
▁skirt
▁south
▁tests
▁weren
▁worst
ability
▁Thomas
▁acting
▁hambur
▁served
▁smooth
▁Washing
▁economy
▁fishing
▁glasses
▁install
▁journey
▁medical
▁replace
▁workers
▁applying
▁material
▁messages
▁mistakes
▁relaxing
▁classical
▁emergency
▁perfectly
▁pollution
▁additional
▁impressive
15
ek
cul
eal
ils
▁17
▁45
hern
mony
▁bri
▁ded
▁fle
▁lad
▁lif
▁mas
▁veh
rated
▁Barb
▁King
▁Serv
▁goal
▁init
▁lake
▁surv
▁tend
seeing
▁Jason
▁Linda
▁court
▁delay
▁drunk
▁empty
▁knock
▁pound
▁shoot
ambling
▁apples
▁copies
▁demand
▁depart
▁energy
▁income
▁seemed
▁showed
▁taught
▁Western
▁ancient
▁average
▁records
▁singing
▁meetings
▁occasion
▁confident
▁reception
▁characters
▁advertising
▁development
▁refrigerator
lla
pes
▁PM
ases
fety
give
uled
ural
urry
▁ABC
▁cru
▁lob
▁nap
▁pin
▁spl
▁unb
apers
aries
ental
house
▁Each
▁Walk
▁Wall
▁cous
▁flav
▁mass
▁plat
▁rule
▁wild
▁added
▁areas
▁lease
▁pants
▁relig
▁shelf
▁teams
▁Second
▁annual
▁brings
▁failed
▁member
▁stamps
▁Usually
▁climate
▁convers
▁culture
▁neither
▁visited
ification
▁channels
▁independ
▁traveler
▁warranty
▁champagne
▁neighbors
▁requirements
▁International
▁responsibility
25
45
ta
ara
rit
▁Fo
▁cu
ails
ains
alog
anch
food
gers
mate
raft
▁Liu
▁PCC
▁ate
▁dat
▁dom
▁etc
▁shy
▁sli
▁zoo
adena
aging
going
gress
istry
under
▁Sing
▁Stop
▁Stud
▁bite
▁perm
▁smok
eaking
▁Franc
▁Helen
▁above
▁annoy
▁bucks
▁cabin
▁gifts
▁hobby
▁labor
▁polit
▁tooth
▁units
▁Robert
▁incred
▁master
▁reduce
▁safety
▁seller
▁slowly
▁stolen
▁styles
▁switch
▁yellow
iversary
▁Another
▁Deposit
▁Johnson
▁Richard
▁alcohol
▁charges
▁dealing
▁declare
▁falling
▁measure
▁perfume
▁showing
▁distance
▁ordinary
▁original
▁spending
▁weekends
▁Washington
▁connection
20
alt
arr
ech
how
▁CD
▁Mc
aren
back
cher
izes
look
roat
zhou
▁Mum
▁Yep
▁aud
▁mob
▁scr
arent
uthor
▁Fair
▁Fore
▁June
▁Mart
▁Turn
▁Wind
▁cats
▁earn
▁lazy
▁legs
▁lend
▁loss
▁salt
▁site
▁stat
▁wrap
mother
▁Hurry
▁Sally
▁badly
▁brief
▁broad
▁chess
▁chips
▁north
▁quant
▁straw
▁sweat
▁tomat
agement
▁Corpor
▁affect
▁favour
▁filled
▁jacket
▁memory
▁singer
▁washed
▁anytime
▁divorce
▁hobbies
▁meaning
▁related
▁theater
▁entrance
▁property
▁sleeping
▁suddenly
▁candidate
▁qualified
▁commercial
▁disappointed
arm
ged
osh
ris
tle
▁jo
XXXX
ales
asty
aven
bits
enth
iece
oken
oods
ties
▁Aug
▁Def
▁Sue
▁inj
▁jum
▁pil
▁tag
▁tit
imate
▁Card
▁Five
▁Lily
▁Over
▁Poor
▁Sand
▁Zina
▁anal
▁fits
▁iron
▁outd
▁outf
▁spir
▁suff
▁wide
▁1,000
▁Haven
▁Looks
▁blind
▁climb
▁habit
▁ideal
▁jeans
▁noisy
▁overd
▁piano
▁stops
▁sunny
▁theat
▁virus
▁Wonder
▁agency
▁casual
▁checks
▁dating
▁dining
▁entire
▁flower
▁heaven
▁killed
▁owners
▁throat
▁typing
▁unless
▁worksh
▁Francis
▁catalog
▁chances
▁complim
▁deserve
▁display
▁effects
▁individ
▁patient
▁typical
▁warning
ibilities
▁baseball
▁particip
▁supplies
▁whenever
▁depressed
▁practical
▁accountant
▁investment
▁literature
▁retirement
▁anniversary
▁interviewer
SA
ham
uct
▁26
▁Sa
▁VI
▁wa
hile
rack
sych
walk
zing
▁Ted
▁Too
▁ess
▁fol
▁max
ading
agers
esome
hings
▁Anna
▁Char
▁True
▁Want
▁chop
▁repe
▁term
▁vill
redict
remely
weight
▁James
▁chequ
▁fries
▁grown
▁honor
▁rough
▁spell
▁tires
▁voted
smoking
▁Things
▁author
▁plants
▁pocket
▁propos
▁regard
▁Olympic
▁damaged
▁officer
▁offices
▁options
▁routine
▁survive
▁Festival
▁articles
▁handsome
▁laughing
▁reserved
▁suitcase
▁teaching
▁terrific
▁scheduled
▁Definitely
▁competition
▁cooperation
▁sightseeing
ex
hod
ids
roy
uum
▁Lo
ging
hest
iest
just
nces
quet
rict
▁Bas
▁Sch
▁Spr
▁bun
▁fan
▁ing
▁lip
▁nin
▁rum
▁sam
▁tip
▁wow
entle
fered
idden
izing
▁Glad
▁Love
▁Road
▁belt
▁boys
▁ends
▁glob
▁grab
▁penc
▁pink
▁pork
▁rise
▁risk
▁shoe
▁tape
▁unus
▁wire
minist
▁While
▁blame
▁clerk
▁fancy
▁frank
▁jokes
▁route
▁sixty
▁split
▁stars
▁stret
▁walls
▁weird
bedroom
▁August
▁branch
▁consum
▁eleven
▁finger
▁ingred
▁insist
▁intend
▁mobile
▁pepper
▁proced
▁robber
▁senior
▁series
▁speech
▁vacuum
standing
▁Working
▁battery
▁cameras
▁charged
▁purpose
▁returns
▁seafood
▁seconds
▁studies
▁turning
▁univers
▁vehicle
▁election
▁features
▁supervis
▁extremely
▁forgotten
▁altogether
▁newspapers
▁travelling
▁universities
▁advertisement
▁congratulations
11
55
iao
nal
nda
ram
sit
▁23
▁75
inum
izer
mbre
vard
▁Bir
▁Bra
▁Gen
▁Hum
▁Rom
▁Web
▁amb
▁gro
▁hey
anced
cycle
eding
ilies
ining
oston
storm
vable
venir
▁Four
▁Kore
▁Lisa
▁Russ
▁bicy
▁calm
▁dorm
▁gall
▁inqu
▁toil
▁Enjoy
▁House
▁bunch
▁cheer
▁chest
▁cockt
▁goals
▁minor
▁neckl
▁oppos
▁plate
▁river
▁schol
▁sheet
▁skill
▁snack
▁title
▁umbre
▁Boston
▁Master
▁addict
▁belong
▁effort
▁expert
▁nation
▁polite
▁princi
▁repeat
▁scient
▁settle
▁speaks
▁spoken
▁supply
▁walked
▁Believe
▁benefit
▁holding
▁lessons
▁network
▁offered
▁reasons
▁Business
▁Olympics
▁Speaking
▁addition
▁electron
▁maintain
▁physical
▁quantity
▁teachers
▁weakness
▁Wonderful
▁advantage
▁basically
▁efficient
▁happening
▁graduation
▁incredible
▁motorcycle
▁challenging
▁ingredients
no
▁'
oph
yer
▁2,
▁70
▁8:
anta
chan
iver
uary
ucky
udge
vant
▁Dri
▁Exp
▁Squ
▁Wil
arian
ashed
eping
irsty
onest
ource
spect
▁Ange
▁Chan
▁Dick
▁Kate
▁Pres
▁Rick
▁Sich
▁Whoa
▁bowl
▁dare
▁hadn
▁harm
▁hole
▁pets
▁quot
▁symp
▁tone
▁valu
idered
oodles
overed
▁Bring
▁Super
▁Thats
▁agent
▁barbe
▁below
▁blank
▁bored
▁cough
▁drugs
▁loans
▁names
▁neare
▁photo
▁plays
▁punch
▁shame
▁signs
▁stage
▁suite
▁teeth
▁tells
▁topic
achelor
utation
▁Forget
▁cousin
▁critic
▁fairly
▁garage
▁grades
▁method
▁object
▁recent
▁repres
▁suppli
▁Harvard
▁Sichuan
▁William
▁bottles
▁housing
▁scenery
▁streets
▁tornado
▁download
▁festival
▁hundreds
▁offering
▁souvenir
▁Something
▁interests
▁neighbour
▁technical
▁considering
▁particularly
▁reservations
TM
pa
▁‘
ago
azz
cca
ges
iny
ler
nam
pre
▁21
▁Bo
▁Bu
▁Ed
▁fu
▁ir
▁tu
adem
elie
ened
lend
like
oles
roll
ulty
umes
unte
utch
▁ATM
▁Eve
▁bum
▁mir
▁nic
▁pig
eable
estic
icago
ipped
offer
▁Call
▁Dece
▁Rest
▁Rome
▁coup
▁disp
▁flex
▁fond
▁grou
▁infl
▁junk
▁none
▁soda
▁sole
▁sore
▁stru
▁Betty
▁Kevin
▁Trust
▁depos
▁frust
▁gotta
▁mixed
▁purse
▁spots
▁truck
▁Almost
▁Waiter
▁adjust
▁blocks
▁clever
▁colour
▁friday
▁gentle
▁habits
▁height
▁nature
▁option
▁outfit
▁permit
▁toilet
▁Chicago
▁channel
▁enterpr
▁forgive
▁outdoor
▁unusual
▁December
▁National
▁families
▁greatest
▁necklace
▁opposite
▁properly
▁starving
ifications
▁Otherwise
▁President
▁community
▁completed
▁effective
▁extension
▁generally
▁mentioned
▁otherwise
▁paintings
▁paperwork
▁regularly
▁California
▁supervisor
▁experienced
▁fashionable
▁transferred
▁conversation
▁advertisements
▁&
---
asy
ray
▁1,
▁36
▁Mm
aign
amin
enry
iger
omes
onda
pack
word
▁Mal
▁Med
▁Sim
▁Ten
▁Ter
▁caf
▁cre
▁fab
▁ham
▁lem
▁log
▁sex
ctors
ening
hache
▁Dave
▁Fred
▁brow
▁cast
▁dull
▁flag
▁liqu
▁lung
▁pipe
▁prem
▁prob
▁stir
▁vers
▁wipe
arship
erally
father
▁Colle
▁Emory
▁Henry
▁crack
▁disag
▁fired
▁focus
▁loose
▁plain
▁rocks
▁sharp
▁shops
▁smile
▁steal
▁wrote
lection
orgeous
▁Avenue
▁arrang
▁breaks
▁cancer
▁embarr
▁expand
▁fourth
▁global
▁lawyer
▁packed
▁rights
▁sample
▁stairs
▁Current
▁bicycle
▁breathe
▁compens
▁earthqu
▁fitness
▁markets
▁nearest
▁picking
▁printer
▁warming
▁windows
elievable
▁bedrooms
▁campaign
▁ceremony
▁charming
▁confused
▁employer
▁evenings
▁forecast
▁goodness
▁location
▁progress
▁required
▁romantic
▁stations
▁umbrella
▁upstairs
▁Everybody
▁following
▁relatives
▁statement
▁appliances
▁classmates
▁considered
▁individual
▁grandmother
▁satisfaction
34
ats
cue
uch
udy
zer
▁27
▁CP
▁Sc
down
made
rimp
size
▁Amy
▁sof
▁tre
▁web
iable
icies
ommod
store
usted
▁Alex
▁Andy
▁Cont
▁Hall
▁July
▁West
▁argu
▁arms
▁burn
▁cafe
▁coin
▁cosm
▁dent
▁keen
▁mult
▁race
▁runs
▁seed
▁soci
▁trim
eteria
▁2,000
▁Afric
▁Baker
▁Guess
▁Karen
▁Merry
▁Their
▁admit
▁bride
▁equal
▁grade
▁grass
▁lipst
▁pages
▁postc
▁prove
▁rates
▁scale
▁stere
olution
▁Square
▁Surely
▁agenda
▁autumn
▁compar
▁decent
▁facial
▁groups
▁remain
▁silver
▁skiing
▁tomato
▁voting
▁Finally
▁Service
▁applied
▁cancell
▁consult
▁customs
▁english
▁haircut
▁highest
▁obvious
▁prevent
▁reports
▁climbing
▁cocktail
▁evidence
▁feelings
▁informed
▁millions
▁policies
▁proposal
▁requires
▁strawber
▁cafeteria
▁embarrass
▁potential
▁selection
▁compliment
▁confidence
▁downstairs
▁personally
▁reputation
▁description
▁manufacture
▁transaction
▁consideration
▁unfortunately
▁qualifications
98
hu
kn
▁x
gal
lim
ogn
rel
▁35
▁Es
▁cy
bage
cles
elly
free
iner
ldom
omen
well
▁Dam
▁IBA
▁Tim
▁fry
▁inf
▁tar
ended
ongue
ounce
ppers
redit
shine
unior
ushed
▁Fill
▁Step
▁bars
▁coke
▁coun
▁data
▁diam
▁feed
▁inse
▁laws
▁lone
▁onto
▁pays
▁pean
▁plac
▁pret
▁slee
▁sout
▁sund
▁yard
▁zero
acious
igning
ushing
▁Watch
▁adult
▁alarm
▁apart
▁banan
▁candy
▁coast
▁dates
▁debit
▁disco
▁draft
▁drove
▁event
▁funds
▁hired
▁nurse
▁occup
▁pills
▁ridic
▁stove
▁waist
tenance
▁Barbie
▁Martin
▁Spring
▁Wilson
▁attack
▁became
▁caused
▁closer
▁cooked
▁hiking
▁histor
▁hotels
▁landed
▁mainly
▁mechan
▁sheets
▁smells
▁strate
▁tongue
▁worker
▁Central
▁concent
▁concern
▁destroy
▁finance
▁fitting
▁killing
▁maximum
▁partner
▁village
▁volunte
▁deadline
▁gambling
▁gorgeous
▁presents
▁roommate
▁separate
▁shipping
▁visitors
▁worrying
▁correctly
▁strengths
▁tradition
▁Restaurant
▁friendship
▁membership
▁technology
▁thoughtful
▁scholarship
▁communication
▁entertainment
ao
ey
ik
gon
ida
mat
ode
pir
▁22
▁32
▁Mo
▁au
athy
ccer
coln
goes
hlet
iers
iled
itan
mpoo
▁250
▁400
▁Dis
▁Ken
▁Law
▁Mel
▁Pet
▁mum
▁mut
▁oce
▁rub
▁rug
▁und
▁upd
▁yog
Track
icing
iency
onven
oring
▁Cons
▁East
▁Form
▁Jess
▁Lets
▁anti
▁buff
▁carr
▁cott
▁cris
▁dust
▁exha
▁fans
▁farm
▁mile
▁mode
▁mort
▁rail
▁scar
▁shif
▁sofa
actory
leased
verted
▁Daddy
▁Eight
▁Janet
▁beans
▁cakes
▁homet
▁lasts
▁moist
▁ought
▁stamp
▁stole
▁stood
▁trick
▁weigh
Tracker
angzhou
roaches
▁accomp
▁athlet
▁cereal
▁crying
▁lesson
▁likely
▁lonely
▁shrimp
▁signed
▁slight
▁soccer
▁transl
▁Manager
▁engaged
▁fortune
▁joining
▁leaders
▁mangoes
▁passion
▁sending
▁shampoo
▁barbecue
▁cultural
▁designed
▁domestic
▁hometown
▁inconven
▁lipstick
▁official
▁possibly
▁promoted
▁provides
▁subjects
▁Hopefully
▁operation
▁professor
▁represent
▁WebTracker
▁apartments
▁frequently
▁ridiculous
▁electricity
▁possibility
▁difficulties
▁instructions
VD
yo
cor
gee
kin
rop
ums
▁Je
▁Wu
▁em
▁ow
▁uh
etch
gant
gged
hell
iant
iles
iter
izzy
rier
yond
▁000
▁199
▁Bea
▁Boy
▁Col
▁DVD
▁Gee
▁Haw
▁Huh
▁Osc
▁Out
▁Sun
▁Tax
▁ign
▁mic
▁pun
▁spo
arily
cling
ength
happy
illed
while
▁Braz
▁Main
▁Mars
▁Open
▁Oper
▁VISA
▁beds
▁chin
▁hero
▁hill
▁kiss
▁pers
▁role
▁sets
▁vict
▁ward
ablish
ancing
ousers
▁3,000
▁Apple
▁Honda
▁Nancy
▁Santa
▁Whats
▁began
▁blond
▁booth
▁china
▁decis
▁eaten
▁fifth
▁force
▁horse
▁humor
▁lemon
▁lines
▁metal
▁meter
▁psych
▁roads
▁rolls
▁solid
▁tasty
▁taxes
atively
ulation
▁Credit
▁Flight
▁Mexico
▁Pardon
▁Parker
▁absent
▁attach
▁balcon
▁detect
▁drives
▁horror
▁invent
▁itself
▁ladies
▁parcel
▁picked
▁planet
▁recogn
▁riding
▁stands
▁sunday
▁tables
▁Express
▁Foreign
▁Lincoln
▁awfully
▁causing
▁central
▁contest
▁heading
▁noodles
▁operate
▁organic
▁promote
▁reached
▁romance
▁towards
▁unhappy
▁Personal
▁addicted
▁flexible
▁honestly
▁projects
▁shoulder
▁textbook
▁trousers
▁appetizer
▁breathing
▁establish
▁hamburger
▁preparing
▁thousands
▁discussion
▁foreigners
▁vegetarian
ministration
▁Corporation
▁Fortunately
▁outstanding
▁unbelievable
40
88
LS
rd
su
500
ita
yle
▁Fl
altz
anda
ased
fall
four
iang
ivil
kins
lder
soci
uted
▁800
▁Los
▁Men
▁Sit
▁Syd
▁USD
▁Win
▁atm
▁cow
▁exe
▁fro
▁neg
alous
becca
ieves
ilton
iquet
venty
▁Gree
▁Help
▁Mill
▁Mmmm
▁Same
▁Sons
▁Such
▁capt
▁envy
▁grew
▁hook
▁joke
▁path
▁peel
▁ripe
▁rose
▁shad
▁sink
▁slim
▁slot
▁surg
▁upon
aching
everal
idents
orters
▁Birth
▁Dutch
▁Elvin
▁Emily
▁Think
▁banks
▁behav
▁birds
▁chops
▁clubs
▁comed
▁death
▁deter
▁faith
▁influ
▁proof
▁saved
▁shout
▁sings
▁trips
looking
working
▁Better
▁Brazil
▁Couldn
▁Econom
▁Follow
▁Indian
▁Single
▁Sydney
▁Though
▁admire
▁altern
▁beyond
▁chilly
▁fruits
▁insect
▁issues
▁length
▁models
▁regret
▁skirts
▁smoker
▁sooner
▁stocks
▁Britain
▁Rebecca
▁Several
▁anybody
▁awesome
▁capital
▁cleaned
▁initial
▁jogging
▁journal
▁kilomet
▁letting
▁massage
▁setting
▁theatre
▁trainer
▁Although
▁annoying
▁carrying
▁employed
▁handling
▁investig
▁valuable
▁waitress
▁Generally
▁bookstore
▁chemistry
▁furnished
▁probation
▁qualities
▁resources
▁stressful
▁utilities
▁acceptable
▁collection
▁exercising
▁considerate
▁corporation
▁regulations
▁compensation
▁recommendation
yn
▁。
:15
aii
gas
hew
med
rev
sed
sha
urt
usi
▁28
▁42
▁Fe
▁IT
▁di
alty
ango
enge
hour
itar
mill
roke
uate
▁Int
▁Pal
▁Pat
▁Red
▁San
▁Six
▁Tha
▁Yup
▁bes
▁bug
▁deb
▁fra
▁ink
▁que
▁rev
▁suc
antly
ators
check
child
cious
class
igent
obile
▁Book
▁Club
▁Damn
▁Doll
▁Gate
▁Long
▁Nick
▁Nope
▁Sara
▁Star
▁Tian
▁Yang
▁chef
▁goss
▁hike
▁ille
▁jail
▁nons
▁pour
▁publ
▁roof
▁summ
▁toes
▁whom
▁woke
▁wool
ademic
ateful
engers
iously
lendar
velous
▁Drive
▁Harry
▁Jimmy
▁North
▁Steve
▁Vince
▁alive
▁aller
▁award
▁cloud
▁condu
▁flies
▁gross
▁judge
▁lobby
▁marks
▁memor
▁nails
▁prize
▁safer
▁shake
▁steam
▁steps
▁thick
▁waltz
▁winds
fection
osphere
▁Twenty
▁Valent
▁beside
▁blouse
▁breast
▁burger
▁convin
▁deduct
▁fallen
▁growth
▁joined
▁listed
▁passes
▁pulled
▁reward
▁seldom
▁unfair
atically
rilliant
▁Angeles
▁College
▁airmail
▁balcony
▁camping
▁compare
▁designs
▁dropped
▁elegant
▁growing
▁hearing
▁invoice
▁jealous
▁managed
▁planned
▁succeed
▁thirsty
▁trading
▁Birthday
▁Mountain
▁although
▁attended
▁calendar
▁clothing
▁detailed
▁economic
▁grateful
▁instance
▁moisturi
▁platform
▁sunshine
▁superior
▁attending
▁challenge
▁departure
▁exhausted
▁household
▁negotiate
▁procedure
ertificates
▁developing
▁overweight
▁photograph
▁cockroaches
▁competitive
▁departments
',
86
IF
▁£
▁–
bag
boy
ino
ius
oot
▁AC
▁AM
▁Ob
▁PI
cted
elet
husi
inct
itam
okyo
olly
ship
ucks
wing
▁Bri
▁Com
▁PLS
▁Ser
▁dev
▁dip
▁lux
▁mur
▁row
enger
iches
monst
vings
▁9:00
▁Carl
▁Mont
▁Pass
▁Tina
▁Tony
▁alum
▁bend
▁bush
▁cord
▁fear
▁moon
▁oven
▁plug
▁recy
▁thor
bidden
isters
person
rating
▁Julie
▁Tokyo
▁Women
▁brush
▁cance
▁chose
▁dizzy
▁drops
▁dumpl
▁image
▁patch
▁queen
▁recon
▁refer
▁reply
▁scary
▁scene
▁shown
▁sizes
▁sorts
▁troub
▁uncom
enities
itamins
workers
▁Accord
▁Center
▁Market
▁Travel
▁column
▁dancer
▁fridge
▁fright
▁intell
▁island
▁jumped
▁junior
▁landsc
▁leader
▁lowest
▁mirror
▁ninety
▁pencil
▁plates
▁raised
▁salads
▁states
▁temper
▁threat
▁waited
▁charity
▁complex
▁crashed
▁curtain
▁delayed
▁demonst
▁efforts
▁elected
▁enthusi
▁garbage
▁hanging
▁largest
▁pattern
▁printed
▁relieve
▁robbery
▁society
▁stretch
▁surface
▁surgery
▁suspect
condition
▁bachelor
▁disagree
▁fabulous
▁midnight
▁mortgage
▁normally
▁shooting
▁talented
▁thorough
▁throwing
▁wireless
▁Guangzhou
▁Valentine
▁bothering
▁brilliant
▁committed
▁exception
▁favorable
▁favourite
▁personnel
▁reduction
▁souvenirs
▁structure
▁volunteer
▁Especially
▁afterwards
▁atmosphere
▁collecting
▁electronic
▁employment
▁foundation
▁passengers
▁throughout
▁withdrawal
▁Certificate
▁educational
▁independent
▁recommended
▁confirmation
▁organization
▁inconvenience
▁uncomfortable
isc
ndy
now
oom
ups
urb
you
▁Ac
▁Aw
▁Pr
▁Ty
▁Wr
▁ah
▁fi
▁ge
▁mp
▁ug
aint
aura
iser
mind
ores
wood
ysis
▁Alt
▁Aut
▁Cou
▁Fif
▁Lea
▁Net
▁PIN
▁cav
▁cit
▁jet
▁nor
▁pad
▁rap
▁tim
▁van
anges
orage
ouses
rical
▁Anne
▁Bang
▁Dear
▁Germ
▁Loan
▁Rock
▁Talk
▁aunt
▁bare
▁bene
▁bull
▁butt
▁flew
▁gram
▁lack
▁link
▁mild
▁pant
▁pens
▁plot
▁rear
▁reci
▁soap
▁ties
▁twin
▁uses
ession
ingers
intosh
minded
moking
ulance
urning
velope
▁5,000
▁Beaut
▁Doesn
▁Laura
▁March
▁Micro
▁broch
▁crush
▁deals
▁exist
▁fewer
▁frame
▁hesit
▁indic
▁label
▁mathe
▁niece
▁ocean
▁penny
▁screw
▁semin
▁sites
▁sneak
▁tools
▁turns
▁wheel
arently
fashion
▁Coffee
▁Indeed
▁animal
▁assure
▁bungee
▁causes
▁counse
▁diving
▁gossip
▁guitar
▁marked
▁posted
▁rating
▁ripped
▁spirit
▁towels
▁warmer
▁wealth
▁wooden
ferences
▁Savings
▁assured
▁burning
▁capable
▁cleaner
▁cookies
▁coupons
▁diamond
▁diction
▁drivers
▁fiction
▁flights
▁however
▁leading
▁lecture
▁predict
▁railway
▁reality
▁recover
▁shortly
▁storage
▁tuition
fashioned
▁accommod
▁aluminum
▁analysis
▁appetite
▁arranged
▁arrested
▁breaking
▁chatting
▁engineer
▁envelope
▁followed
▁function
▁notebook
▁packages
▁patience
▁reliable
▁sidewalk
▁solution
▁southern
▁strategy
▁workshop
▁Fantastic
▁Yesterday
▁amenities
▁automatic
▁currently
▁detective
▁developed
▁encourage
▁intention
▁interrupt
▁political
▁postcards
▁religious
▁returning
▁specialty
▁treatment
▁advantages
▁difficulty
▁directions
▁efficiency
▁interviews
▁kilometers
▁sandwiches
▁concentrate
▁examination
▁experiences
▁maintenance
▁conditioning
▁satisfactory
▁relationships
,'
."
67
DD
EL
hh
alf
asc
can
ems
gin
imb
iry
oul
rid
tor
▁29
▁95
▁Da
▁Sl
▁Yi
andy
clus
done
erob
itty
omin
onse
west
▁Cap
▁EDD
▁Ins
▁Mus
▁Pol
▁Rel
▁Umm
▁bac
▁esc
▁idi
▁lid
▁sac
▁tan
▁via
ences
erves
iland
irley
jamin
known
rific
▁Back
▁Brad
▁Cash
▁Dian
▁Inst
▁Mine
▁Rich
▁Taxi
▁Zeal
▁bean
▁bird
▁cate
▁eval
▁exit
▁gown
▁jazz
▁lamb
▁lawn
▁memo
▁mush
▁ours
▁pron
▁puzz
▁samp
▁suck
▁tips
▁toys
▁west
▁wise
ashing
coming
erable
ighted
istics
pected
storms
▁10:00
▁Greek
▁Leave
▁Maria
▁brain
▁brave
▁coach
▁eager
▁filet
▁grape
▁groom
▁heels
▁landl
▁leads
▁named
▁opera
▁pairs
▁prote
▁rainy
▁saves
▁stays
▁stone
▁talks
▁trash
▁tries
▁wines
asadena
ittance
▁10,000
▁Africa
▁Nobody
▁School
▁Thirty
▁actual
▁calcul
▁closes
▁covers
▁create
▁emails
▁fiance
▁filing
▁forest
▁handed
▁pardon
▁perman
▁porter
▁prompt
▁racket
▁rained
▁remove
▁sleepy
▁spread
▁strike
▁target
▁tasted
▁thrill
▁vacant
▁Charles
▁January
▁Shirley
▁Zealand
▁answers
▁benefic
▁booking
▁carrots
▁classic
▁conclud
▁created
▁figured
▁fingers
▁flavors
▁highway
▁illegal
▁leaking
▁lottery
▁matters
▁methods
▁musical
▁propose
▁samples
▁serving
▁skating
▁weights
▁winning
▁Altadena
▁Benjamin
▁Thailand
▁academic
▁approach
▁arriving
▁behavior
▁bleeding
▁bringing
▁careless
▁cheapest
▁definite
▁deserves
▁designer
▁fighting
▁hardware
▁meantime
▁plumbing
▁realized
▁response
▁sensible
▁speakers
▁stopping
▁stronger
▁violence
▁Macintosh
▁Seriously
▁ambulance
▁cardboard
▁classroom
▁convinced
▁corporate
▁decisions
▁depending
▁exercises
▁marvelous
▁miserable
▁overnight
▁passenger
▁prescribe
▁reference
▁suppliers
▁Management
▁earthquake
▁generation
▁medication
▁resolution
▁arrangement
▁collections
▁countryside
▁differently
▁identification
▁representative
1-
ww
box
het
pot
rip
top
yan
▁$1
▁ET
▁IB
▁Ir
▁Sw
▁Ta
aked
assy
cies
firm
host
lead
mine
osen
oust
utes
▁Aha
▁Del
▁Lat
▁Mid
▁Pay
▁Reg
▁Sec
▁cro
▁ens
▁gay
▁las
▁mel
▁mer
▁pam
arrow
ellow
eries
getic
ivity
onald
pirin
reeze
stood
tered
ulate
▁6:00
▁7:00
▁7:30
▁Cook
▁Haha
▁Joan
▁Judy
▁Lake
▁Miao
▁Ryan
▁Thai
▁Wood
▁blog
▁east
▁edge
▁folk
▁heal
▁inch
▁mask
▁matt
▁nuts
▁phil
▁pray
▁pump
▁pure
▁puts
▁rede
▁sung
▁tabl
▁teen
▁tiss
▁ugly
▁worn
anches
giving
inking
istant
lement
minals
ounced
▁Asian
▁Brian
▁Games
▁Kelly
▁Times
▁Until
▁awake
▁beers
▁buyer
▁civil
▁grill
▁immig
▁lungs
▁lying
▁needn
▁pregn
▁prior
▁repay
▁shock
▁swear
▁tango
▁trial
▁truly
▁wears
▁wound
▁Either
▁Hawaii
▁Johnny
▁Palace
▁Yellow
▁allows
▁aspect
▁barely
▁bridge
▁buffet
▁chosen
▁cleans
▁cotton
▁cruise
▁duties
▁ending
▁explan
▁fields
▁floors
▁former
▁gather
▁novels
▁placed
▁rental
▁stereo
▁stroke
▁superb
▁supper
▁tempor
▁wholes
▁writer
eresting
▁British
▁Neither
▁arrival
▁cartons
▁compete
▁couples
▁credits
▁dentist
▁doctors
▁edition
▁fastest
▁heating
▁injured
▁manners
▁matches
▁peanuts
▁physics
▁premium
▁qualify
▁reduced
▁sisters
▁slipped
▁sources
▁thunder
▁treated
criptions
▁Airlines
▁announce
▁assigned
▁audience
▁borrowed
▁branches
▁brothers
▁canceled
▁catching
▁cheating
▁deserved
▁hesitate
▁managers
▁mornings
▁outgoing
▁peaceful
▁stranger
▁allowance
▁discussed
▁energetic
▁overdraft
▁permanent
▁complaints
▁enterprise
▁historical
▁introduced
▁combination
▁destination
▁documentary
▁frustrating
▁preparation
▁arrangements
13
18
87
mi
oe
aks
auc
bur
for
met
obe
oos
pei
pro
▁3,
▁56
▁65
▁9:
▁HR
▁LA
▁TO
▁Tv
▁um
agon
ledg
long
quis
rely
reme
rial
soft
▁CIF
▁Cha
▁Cop
▁Des
▁ETV
▁Hes
▁IBM
▁Imp
▁Les
▁Mad
▁Mag
▁alb
▁ank
▁dil
▁dim
▁doz
▁gap
▁hip
▁hmm
▁pow
▁pul
▁tid
ascin
bered
eight
etics
icals
ignon
inner
olley
osoph
resso
round
▁Eric
▁Gold
▁Half
▁Lots
▁Ping
▁Post
▁Wish
▁arts
▁brac
▁circ
▁disg
▁duck
▁hack
▁kilo
▁leak
▁logo
▁neat
▁nutr
▁peak
▁pill
▁tack
▁tatt
▁toot
▁vent
▁zone
antern
ffered
ilding
iverse
teenth
ynasty
▁11:30
▁Allen
▁Carol
▁Count
▁Italy
▁Korea
▁aerob
▁argue
▁balls
▁bloss
▁categ
▁click
▁crisp
▁flash
▁folks
▁freed
▁ghost
▁joint
▁kilos
▁mayor
▁motiv
▁mustn
▁nasty
▁owner
▁remem
▁sells
▁threw
▁towel
▁union
▁windy
keeping
section
▁Agency
▁Around
▁Contin
▁Having
▁Hilton
▁Honest
▁Janice
▁Medium
▁Taipei
▁appeal
▁artist
▁buried
▁circul
▁dances
▁establ
▁fascin
▁garlic
▁honors
▁luxury
▁prints
▁refres
▁refuse
▁relief
▁resign
▁robbed
▁scores
▁steaks
▁stomac
▁theory
▁tricks
▁Channel
▁Windows
▁affairs
▁antique
▁banking
▁banquet
▁cabinet
▁constru
▁dislike
▁divided
▁dreamed
▁greatly
▁handbag
▁happier
▁herself
▁insects
▁limited
▁quicker
▁reflect
▁seventy
▁sharing
▁speaker
▁systems
▁tablets
▁useless
olleyball
▁Anderson
▁European
▁approval
▁argument
▁backpack
▁blackout
▁creative
▁cupboard
▁distract
▁freezing
▁frequent
▁generous
▁landlord
▁mattress
▁receipts
▁saturday
▁stressed
▁vitamins
▁Basically
▁Microsoft
▁attendant
▁complaint
▁connected
▁counselor
▁influence
▁naturally
▁obviously
▁philosoph
▁regarding
▁textbooks
▁vegetable
▁affordable
▁hamburgers
▁occupation
▁organizing
▁professors
▁strawberry
▁commercials
▁complaining
▁convenience
▁grandfather
▁negotiation
▁photography
▁manufacturer
▁automatically
17
6-
fu
hy
of
apt
gri
lar
lin
van
yst
▁82
▁CE
ares
cery
char
ewel
fers
hers
illa
life
moon
oman
omed
oned
oons
robe
vere
▁600
▁Dal
▁Ell
▁Hol
▁Lad
▁Las
▁Leo
▁Mor
▁NBA
▁Nan
▁Pam
▁Swe
▁aid
▁boo
▁cub
▁gam
▁gum
▁jar
▁pum
▁raw
▁spr
▁tas
▁uns
▁vou
acity
adium
asing
ender
field
heast
iques
itors
itute
oster
pense
piece
umber
urred
water
▁1000
▁6:30
▁Calm
▁Flor
▁Jill
▁Ming
▁Play
▁Size
▁Tang
▁buck
▁chap
▁flea
▁foul
▁fuel
▁grav
▁king
▁lent
▁pace
▁rash
▁rele
▁tiny
▁unex
advant
ancies
aughty
itanic
niquet
ocable
oosing
usting
▁Class
▁Holly
▁Jerry
▁Later
▁Latin
▁Opera
▁Sales
▁Spain
▁Stars
▁Under
▁Wendy
▁accur
▁bacon
▁coins
▁curly
▁doors
▁drama
▁entry
▁falls
▁homes
▁initi
▁newly
▁nosey
▁reimb
▁resol
▁scarf
▁shave
▁stain
▁tours
▁upper
▁whose
holders
mission
▁Ladies
▁Reserv
▁Romans
▁advent
▁ballot
▁chairs
▁cheque
▁circum
▁dreams
▁enroll
▁exceed
▁flavor
▁frozen
▁gamble
▁ginger
▁hiring
▁impact
▁killer
▁lifest
▁liquor
▁narrow
▁nightm
▁potato
▁powder
▁prison
▁profic
▁region
▁serves
▁shadow
▁snacks
▁suites
▁tissue
▁toward
▁united
▁victim
ological
urnished
▁Mexican
▁Russian
▁Sandals
▁Travell
▁airline
▁arrives
▁billion
▁cashier
▁century
▁cheated
▁chinese
▁freedom
▁grandma
▁grocery
▁inquire
▁monitor
▁muscles
▁oranges
▁painful
▁pockets
▁realtor
▁regards
▁reminds
▁scratch
▁shuttle
▁spirits
▁steamed
▁thieves
▁trained
▁venture
▁activity
▁approved
▁basement
▁curtains
▁internal
▁mathemat
▁misunder
▁mushroom
▁organize
▁powerful
▁provided
▁relevant
▁returned
▁smoothly
▁wardrobe
▁websites
▁accidents
▁buildings
▁cancelled
▁confirmed
▁contracts
▁deadlines
▁disadvant
▁discounts
▁dumplings
▁honeymoon
▁housework
▁immediate
▁positions
▁publicity
▁recognize
▁reconfirm
▁reminding
▁signature
▁specially
▁toothache
▁workshops
▁decorating
▁dictionary
▁facilities
▁processing
▁profession
▁programmes
▁tourniquet
▁weaknesses
▁Interesting
▁appreciated
▁communicate
▁conditioner
▁engineering
▁explanation
▁improvement
▁photographs
▁alternatives
▁appointments
▁certificates
▁expectations
▁intersection
▁occasionally
▁environmental
32
76
80
bu
lt
oh
ti
egr
gic
gue
ige
lie
net
odd
phy
▁78
▁::
▁Ay
▁MP
▁UK
▁ce
▁eh
▁od
abor
bell
fill
mbol
meal
rary
▁180
▁Ber
▁CEO
▁Cup
▁Exc
▁Kim
▁Lar
▁Nah
▁Rec
▁Use
▁Wei
▁esp
▁gal
▁rab
▁tap
▁unp
▁ver
achel
alled
anley
atory
attle
ching
cknow
garet
helle
ittee
month
seven
stery
vince
xious
▁Asia
▁Coke
▁Easy
▁Eliz
▁Life
▁Must
▁Norm
▁Nove
▁Ouch
▁Phil
▁Stay
▁Todd
▁Visa
▁bail
▁cher
▁cups
▁curi
▁hide
▁lane
▁leis
▁lets
▁male
▁nurs
▁oint
▁pear
▁prim
▁remo
▁reun
▁seas
▁soph
▁susp
▁tank
▁vase
▁yoga
ounces
priate
uation
▁12:00
▁Cheer
▁Chequ
▁Claim
▁Diana
▁Foods
▁Going
▁Music
▁Obama
▁Seven
▁Twice
▁Young
▁brick
▁burnt
▁couch
▁dough
▁extro
▁graph
▁handy
▁hates
▁hills
▁lover
▁mouse
▁nicer
▁pamph
▁puppy
▁rugby
▁sixth
▁slept
▁spoke
▁stink
▁trend
istance
orthern
quisite
wardess
▁Dalian
▁Dinner
▁Disney
▁Easter
▁Friend
▁Russia
▁actors
▁adults
▁advise
▁banana
▁brands
▁comedy
▁dozens
▁editor
▁extent
▁finals
▁ignore
▁integr
▁ladder
▁learnt
▁locked
▁newcom
▁phones
▁secure
▁severe
▁signal
▁sleeve
▁source
▁symbol
▁tailor
▁unable
▁unique
atherine
▁Anytime
▁Florida
▁Germany
▁Grandma
▁Pleased
▁Seattle
▁Smoking
▁Stanley
▁Without
▁aspirin
▁bowling
▁carried
▁closing
▁conserv
▁continu
▁discour
▁dresses
▁equally
▁exports
▁extreme
▁feature
▁follows
▁funeral
▁lobster
▁museums
▁mystery
▁naughty
▁overall
▁passing
▁portion
▁posters
▁pressed
▁respond
▁retired
▁sellers
▁shorter
▁signing
▁singers
▁stuffed
▁testing
revocable
▁Margaret
▁Michelle
▁November
▁Whenever
▁advanced
▁bandages
▁bankrupt
▁brochure
▁capacity
▁choosing
▁combined
▁contains
▁crossing
▁decorate
▁earliest
▁estimate
▁fluently
▁homeless
▁interpre
▁negative
▁ointment
▁opinions
▁paycheck
▁pregnant
▁religion
▁resident
▁selected
▁signific
▁suffered
▁thirteen
▁traveled
▁troubles
▁universe
redictable
▁Continued
▁Traveller
▁catalogue
▁champions
▁cooperate
▁criminals
▁destroyed
▁employers
▁expanding
▁factories
▁foreigner
▁published
▁rewarding
▁travelers
▁waterfall
▁Personally
▁accomplish
▁advertised
▁apparently
▁assignment
▁assistance
▁attendants
▁california
▁discovered
▁eventually
▁nonsmoking
▁passionate
▁practicing
▁principles
▁remembered
▁surprising
▁assignments
▁hospitality
▁mathematics
▁participate
▁enthusiastic
▁subscription
▁independently
▁administration
19
2,
39
5-
CC
II
KE
RE
wr
bet
bon
dom
gen
gom
hyd
lom
lyn
omb
oog
reg
sle
ucc
ula
zes
▁38
▁55
▁CV
▁IQ
▁ep
▁hy
▁ya
ades
aire
arks
cend
grad
gree
gypt
hens
male
ousy
paid
rets
unci
vest
wear
what
▁110
▁911
▁Art
▁Big
▁CPR
▁DEL
▁Ear
▁Ice
▁Ret
▁Sum
▁Var
▁biz
▁gre
▁lag
▁lun
▁obs
▁pra
▁rhy
▁ted
▁unc
▁wis
▁yen
abeth
abies
anted
anton
aucet
cases
clean
ician
inson
niest
ograp
oline
ollen
ordan
ounge
overs
proof
rings
useum
▁2000
▁Done
▁Hill
▁Jean
▁Nine
▁Oaks
▁Oops
▁Part
▁Pick
▁Shan
▁Stra
▁acqu
▁asks
▁bone
▁corn
▁cows
▁cuis
▁cuts
▁deck
▁diss
▁gosh
▁hell
▁hood
▁hunt
▁info
▁lamp
▁masc
▁palm
▁ping
▁pitc
▁radi
▁sour
▁spit
▁tens
▁unre
▁wars
agging
ainted
angers
ewelry
gomery
handed
icians
omeday
onents
screen
tering
▁10:30
▁Again
▁Broad
▁Conne
▁Cross
▁Egypt
▁Huang
▁Kitty
▁State
▁Still
▁Tower
▁Whole
▁adapt
▁ankle
▁baker
▁boots
▁brake
▁buddy
▁cares
▁chase
▁chill
▁citiz
▁dread
▁dying
▁elder
▁empha
▁fires
▁flood
▁guard
▁lists
▁loads
▁loses
▁magic
▁maker
▁media
▁multi
▁nerve
▁pitch
▁rapid
▁rings
▁scrat
▁shift
▁shine
▁spect
▁spoil
▁tears
▁tiger
▁twist
▁walks
minator
ointing
onsider
stances
wellery
▁Canton
▁Comput
▁Custom
▁Donald
▁During
▁Foster
▁Health
▁Jordan
▁Korean
▁Mostly
▁Mother
▁Museum
▁baking
▁banker
▁begins
▁boiled
▁brakes
▁breeze
▁cooler
▁desire
▁eighty
▁ensure
▁execut
▁extend
▁faucet
▁fellow
▁female
▁instit
▁itiner
▁lounge
▁mignon
▁parked
▁pilgri
▁poison
▁remote
▁safely
▁shared
▁shorts
▁status
▁sticks
▁taller
▁tornad
▁Cheques
▁Develop
▁Holiday
▁Roberts
▁Through
▁Trading
▁beaches
▁buttons
▁cheques
▁cleared
▁colored
▁concept
▁consign
▁dieting
▁entered
▁fiancee
▁founded
▁gaining
▁harmful
▁imports
▁intense
▁learner
▁refresh
▁showers
▁someday
▁sticker
▁surfing
▁swollen
▁tournam
▁vacancy
▁visitor
▁watches
▁wrapped
▁Building
▁Canadian
▁Honestly
▁Nowadays
▁Straight
▁Williams
▁colorful
▁costumes
▁coverage
▁crackers
▁espresso
▁exhibits
▁gasoline
▁improved
▁invoking
▁maturity
▁outdoors
▁pasadena
▁password
▁pronunci
▁proposed
▁quarters
▁reported
▁reporter
▁resource
▁shouting
▁slightly
▁sneakers
▁soldiers
▁spacious
▁Cantonese
▁Christian
▁Elizabeth
▁Francisco
▁admission
▁announced
▁attracted
▁childhood
▁colleague
▁competent
▁confusing
▁cosmetics
▁dishonest
▁exquisite
▁happiness
▁organized
▁principle
▁reporting
▁sensitive
▁shorthand
▁shoulders
▁wholesale
▁Accounting
▁Australian
▁Montgomery
▁appearance
▁attendance
▁candidates
▁challenges
▁classified
▁complexion
▁constantly
▁contribute
▁electrical
▁expression
▁importance
▁percentage
▁relatively
▁remittance
▁stewardess
▁unexpected
▁volleyball
▁weatherman
▁worthwhile
▁celebration
▁circulation
▁differences
▁efficiently
▁embarrassed
▁established
▁instruments
▁interviewed
▁introverted
▁stomachache
▁Thanksgiving
▁accidentally
▁contribution
▁embarrassing
▁installation
▁introduction
▁unpredictable
-2
7,
77
?'
AM
gu
ka
va
KEA
ada
bow
fly
ilk
nov
put
rot
run
▁62
▁85
▁99
ahoo
arts
aves
eare
ease
harm
ilty
inch
olic
onds
otic
outs
pong
pson
resp
ruit
toms
week
wide
yram
▁401
▁Arm
▁Ask
▁Bal
▁Dor
▁Gra
▁Inn
▁Jac
▁Kar
▁McD
▁Mei
▁Nat
▁Pan
▁Pen
▁Que
▁Ron
▁Tea
▁Ugh
▁War
▁ast
▁bou
▁gig
▁hom
▁meg
▁mud
▁ped
▁rot
▁tut
▁wip
andom
flies
grade
irect
unted
unter
ushes
virus
works
▁Beck
▁Bell
▁Comm
▁Feel
▁High
▁IKEA
▁Ling
▁Much
▁Near
▁Plus
▁Port
▁Read
▁Supp
▁Wars
▁Word
▁bind
▁buys
▁cert
▁clar
▁dive
▁dose
▁drag
▁fert
▁flip
▁fold
▁fres
▁glue
▁jack
▁jams
▁leaf
▁lect
▁magn
▁oral
▁poet
▁rely
▁saus
▁slic
▁spin
▁thri
▁warn
▁wave
▁wins
atmeal
itable
minton
opping
rehens
romise
taking
uccino
▁Billy
▁Field
▁Front
▁Grant
▁Inter
▁Irish
▁Lucky
▁Money
▁Oscar
▁Pizza
▁River
▁Roman
▁Sandy
▁Sweet
▁Terry
▁Tiger
▁amend
▁bases
▁dishw
▁equiv
▁fined
▁flick
▁fragr
▁galax
▁grind
▁hilar
▁knife
▁lousy
▁micro
▁nomin
▁persu
▁pharm
▁poems
▁ports
▁quote
▁salty
▁sheep
▁shots
▁socks
▁spray
▁squee
▁stiff
▁switc
▁whisk
aration
chedule
ization
urities
▁Autumn
▁Cheers
▁Except
▁Garden
▁Malays
▁Oscars
▁Peking
▁Rachel
▁accent
▁collar
▁convey
▁cooker
▁deeply
▁dragon
▁drawer
▁factor
▁forced
▁fortun
▁grapes
▁grocer
▁guilty
▁indoor
▁infect
▁insert
▁levels
▁lively
▁oldest
▁parent
▁purple
▁pushed
▁random
▁rarely
▁ruined
▁scenes
▁scheme
▁slides
▁stains
▁suffer
▁suited
▁termin
▁terrif
▁treats
▁values
▁volume
▁weekly
fficient
▁Looking
▁absence
▁actress
▁bananas
▁becomes
▁bellboy
▁blanket
▁bonuses
▁bouquet
▁closely
▁conflic
▁contain
▁costume
▁courage
▁cutting
▁daytime
▁distrib
▁disturb
▁drawing
▁expense
▁explore
▁freezer
▁inquiry
▁insured
▁jewelry
▁knocked
▁matched
▁pencils
▁persons
▁polling
▁pretend
▁privacy
▁quarrel
▁redecor
▁seasons
▁seminar
▁seventh
▁shining
▁sixteen
▁sleeper
▁somehow
▁species
▁version
▁voucher
cknowledg
▁Broadway
▁Exchange
▁Moreover
▁aerobics
▁blossoms
▁bracelet
▁comments
▁compared
▁contrary
▁controls
▁critical
▁desserts
▁distinct
▁dreaming
▁earrings
▁fourteen
▁funniest
▁identity
▁involves
▁lighting
▁newcomer
▁overcome
▁overhead
▁partners
▁platinum
▁polluted
▁quitting
▁restrict
▁restroom
▁salaries
▁singsong
▁surround
▁sweaters
▁symptoms
▁tempting
▁tourists
▁Corporate
▁Hollywood
▁Taiwanese
▁Therefore
▁abilities
▁agreeable
▁answering
▁badminton
▁broadcast
▁decorated
▁disappear
▁economics
▁essential
▁gardening
▁headaches
▁healthier
▁highlight
▁hilarious
▁jewellery
▁landscape
▁lifestyle
▁nutrition
▁packaging
▁reimburse
▁roommates
▁suffering
▁temporary
▁belongings
▁chocolates
▁depositing
▁frustrated
▁grandchild
▁increasing
▁industrial
▁instrument
▁leadership
▁mechanical
▁proficient
▁purchasing
▁relaxation
▁scientific
▁yourselves
▁beautifully
▁butterflies
▁connections
▁encouraging
▁enterprises
▁extroverted
▁fascinating
▁irrevocable
▁porterhouse
▁achievements
▁experiencing
▁performances
▁stockholders
cknowledgments
▁circumstances
▁manufacturers
▁neighbourhood
21
29
CL
OB
YZ
ba
do
la
sa
Pod
ams
arn
cia
dog
eaf
eps
few
oli
she
whe
▁4,
▁La
▁NT
▁Sn
▁Ye
▁om
▁yo
555-
ands
anes
away
bert
burn
cont
corn
ctic
fish
ggle
gies
hnic
ingo
ingu
ixed
jack
keep
kesp
lets
lmet
mers
nity
ocop
ooke
oses
qual
quar
test
urbs
▁Adv
▁Bud
▁Cds
▁Dig
▁Far
▁Ham
▁Hua
▁Old
▁Pri
▁Sal
▁Ton
▁Ver
▁XYZ
▁alt
▁bot
▁bul
▁ful
▁lap
▁lin
▁opt
▁rac
▁shr
▁tub
abase
apore
bound
cloth
cover
eland
etime
hered
ially
itals
lling
merce
odies
ollar
orses
ously
oween
thony
yalty
▁Best
▁Blue
▁Cath
▁Desk
▁Geez
▁Gone
▁Greg
▁Hang
▁Hans
▁Move
▁Send
▁Shes
▁Tour
▁army
▁asse
▁bait
▁blew
▁buns
▁burg
▁chew
▁disk
▁dram
▁enem
▁gray
▁guts
▁hail
▁heel
▁hits
▁iced
▁inex
▁kung
▁liar
▁lips
▁mini
▁pend
▁pred
▁rang
▁sake
▁seal
▁stim
▁tidy
▁unne
▁vary
▁virt
ambled
ifying
liness
sticks
teries
venues
▁Arden
▁Clive
▁Ether
▁Human
▁Langu
▁Loans
▁Malia
▁Marry
▁Queen
▁Relax
▁Trade
▁accum
▁analy
▁arbit
▁bench
▁blast
▁blend
▁bless
▁blown
▁boost
▁chart
▁cheat
▁cliff
▁coats
▁coinc
▁daddy
▁decre
▁dehyd
▁flour
▁flyer
▁freel
▁greet
▁heads
▁invit
▁latte
▁liter
▁mango
▁manic
▁nause
▁onion
▁perks
▁pulse
▁queue
▁rumor
▁scent
▁shade
▁sheer
▁slide
▁steel
▁steep
▁sucks
▁swing
▁tread
▁valid
▁wings
▁woods
ancakes
cessary
imistic
issions
pensive
ultural
unction
▁Associ
▁Fields
▁Joanne
▁Number
▁associ
▁babies
▁behave
▁beings
▁bloody
▁bosses
▁bricks
▁buyers
▁caring
▁carton
▁cavity
▁chores
▁commit
▁curfew
▁diplom
▁dumped
▁estate
▁ethnic
▁exclud
▁floods
▁french
▁fundra
▁gained
▁genius
▁gently
▁healed
▁helmet
▁hurric
▁inches
▁issued
▁lotion
▁manner
▁margin
▁metres
▁murder
▁mutual
▁outlet
▁packet
▁reject
▁rented
▁scream
▁shares
▁shifts
▁smoked
▁stable
▁stones
▁storms
▁unbear
▁vision
▁yearly
▁yogurt
kespeare
ppuccino
▁Airport
▁Anthony
▁Awesome
▁Barbara
▁Beautif
▁Darling
▁Getting
▁Jackson
▁Jessica
▁Nanjing
▁anxious
▁artists
▁auction
▁bothers
▁catches
▁chemist
▁comfort
▁conclus
▁dynasty
▁envelop
▁factors
▁failure
▁frankly
▁gravity
▁heavily
▁jumping
▁leisure
▁licence
▁mailing
▁mascara
▁mileage
▁nursing
▁oatmeal
▁penalty
▁popcorn
▁pouring
▁primary
▁pulling
▁puzzles
▁recycle
▁reunion
▁sharpen
▁snowing
▁spectac
▁spilled
▁stadium
▁suburbs
▁summers
▁tourism
isticated
▁Copeland
▁Ethernet
▁Services
▁Terrific
▁athletes
▁calories
▁creating
▁database
▁delicate
▁deposits
▁diligent
▁district
▁feedback
▁fountain
▁imagined
▁lemonade
▁memories
▁ordering
▁pamphlet
▁photocop
▁practise
▁precious
▁printing
▁receiver
▁released
▁salesman
▁sections
▁specials
▁supplier
▁thoughts
▁wherever
▁Brazilian
▁Catherine
▁Halloween
▁Singapore
▁butterfly
▁determine
▁forbidden
▁galleries
▁geography
▁groceries
▁nightmare
▁permitted
▁photograp
▁residence
▁scrambled
▁subscribe
▁suggested
▁vacancies
▁acceptance
▁applicants
▁automobile
▁bargaining
▁chopsticks
▁components
▁dehydrated
▁disgusting
▁equipments
▁frightened
▁instructor
▁originally
▁philosophy
▁population
▁procedures
▁scientists
▁situations
▁sufficient
▁techniques
▁understood
▁Development
▁competitors
▁electronics
▁exhibitions
▁inexpensive
▁intelligent
▁interpreter
▁invitations
▁unnecessary
▁availability
▁conservative
▁strawberries
▁successfully
▁sophisticated
05
23
4,
6,
64
65
69
78
85
EF
EN
FO
PA
bb
fi
mo
pm
tt
tw
vd
vy
123
CLA
EFL
ala
bes
chy
ded
ela
esh
ete
iac
irl
jun
kok
nie
olk
ona
osc
sis
thy
▁31
▁37
▁64
▁7,
▁88
▁BA
▁CA
▁Cr
▁EQ
▁Hm
▁MS
▁Na
▁Ow
▁PR
▁Wy
1-98
aste
bble
cipl
eapp
emet
emor
ette
face
ford
ieth
inge
inic
ixty
kers
kong
lers
ller
mere
oard
oker
oves
rels
rete
shan
trip
uals
uine
umer
unic
upun
▁850
▁900
▁Att
▁Buy
▁Cle
▁Cut
▁Dou
▁Emb
▁Han
▁Lou
▁MBA
▁Mat
▁Pac
▁Rod
▁Rog
▁Run
▁Set
▁Spe
▁UFO
▁VIP
▁Van
▁Wal
▁Woo
▁Yog
▁aim
▁bin
▁cad
▁clo
▁den
▁dup
▁dvd
▁flo
▁gin
▁jog
▁joy
▁led
▁pud
▁ric
▁toy
▁unl
▁www
agger
akers
ambur
anmen
atown
chite
enses
force
fried
fting
heart
icken
ictor
ilian
opard
oseph
otted
ppery
stone
style
uming
ustle
▁2:00
▁2:30
▁Bush
▁Clin
▁Dark
▁Dean
▁Dist
▁Fall
▁Gosh
▁Head
▁Home
▁Luck
▁Matt
▁Mean
▁Name
▁News
▁Pars
▁Scot
▁Sign
▁Soci
▁Sony
▁Sout
▁Teac
▁Tele
▁Temp
▁Test
▁Thou
▁UCLA
▁adop
▁airs
▁calc
▁cans
▁coal
▁cuff
▁deaf
▁dime
▁eats
▁elig
▁emot
▁epis
▁eyel
▁fuss
▁insp
▁lean
▁lies
▁nail
▁oily
▁pile
▁pupp
▁semi
▁shel
▁skip
▁stub
▁task
▁thai
▁ther
▁thum
▁tied
▁tons
▁triv
▁tune
▁vegg
▁waff
▁ware
corder
ensils
fujing
iments
millan
minute
phones
rative
ulated
ulence
ulture
utions
▁1,500
▁4,000
▁Agree
▁Award
▁Bingo
▁Bobby
▁Danny
▁Earth
▁Euros
▁Jacob
▁Krist
▁Might
▁Power
▁Psych
▁Sixty
▁Small
▁Sport
▁Stand
▁Stone
▁Store
▁Techn
▁Vegas
▁Water
▁Youth
▁actor
▁agric
▁aside
▁attor
▁baked
▁beard
▁begun
▁bloom
▁burst
▁caffe
▁carts
▁cemet
▁chief
▁chili
▁chron
▁craft
▁crash
▁crown
▁cruel
▁curry
▁dolls
▁essay
▁faces
▁facts
▁fetch
▁flesh
▁fools
▁grace
▁hopes
▁knees
▁moves
▁panty
▁pedal
▁perse
▁pilot
▁postp
▁pursu
▁rhyth
▁rides
▁risky
▁scold
▁sends
▁stall
▁theme
▁tonic
▁trimm
▁twent
▁typed
essions
icapped
ificial
iration
ishment
ristmas
ustomed
writing
▁20,000
▁Amanda
▁Andrew
▁Berlin
▁Brooke
▁Engine
▁Hambur
▁Joseph
▁Letter
▁Miller
▁Nathan
▁Return
▁Sharon
▁Summer
▁Suzhou
▁Winter
▁adding
▁affair
▁assess
▁awhile
▁browse
▁bumper
▁candle
▁circle
▁clinic
▁conver
▁copier
▁counts
▁cowork
▁desert
▁dormit
▁duplic
▁eighth
▁enjoys
▁excess
▁fertil
▁filthy
▁firmly
▁freeze
▁golden
▁headed
▁hidden
▁hiding
▁horses
▁intake
▁lenses
▁liking
▁limits
▁loaded
▁merely
▁messed
▁nerves
▁notify
▁obtain
▁ounces
▁palace
▁planes
▁prizes
▁recall
▁roller
▁scenic
▁seated
▁sewing
▁sights
▁silent
▁slacks
▁spaces
▁statue
▁struck
▁turkey
▁typist
▁voters
▁winner
graduate
hibition
▁Airline
▁Bangkok
▁Banking
▁Charlie
▁Counter
▁Instead
▁Luckily
▁Pacific
▁Parsons
▁Simpson
▁Station
▁amounts
▁apology
▁archite
▁blocked
▁blouses
▁captain
▁chapter
▁consist
▁desktop
▁dischar
▁discipl
▁disease
▁dispens
▁exagger
▁examine
▁exchang
▁freeway
▁genuine
▁grandpa
▁honored
▁hottest
▁hunting
▁illness
▁lantern
▁napkins
▁needing
▁needles
▁outline
▁painted
▁postage
▁prefers
▁quietly
▁raising
▁rapidly
▁recipes
▁release
▁repairs
▁roasted
▁roughly
▁sailing
▁seeking
▁shopped
▁sleeves
▁starter
▁sweetie
resistant
upuncture
▁Bachelor
▁Malaysia
▁McDonald
▁Normally
▁Robinson
▁Secondly
▁accurate
▁admitted
▁attached
▁blinking
▁browsing
▁cashmere
▁cemetery
▁cheerful
▁conclude
▁concrete
▁conserve
▁consists
▁convince
▁division
▁examples
▁humorous
▁informal
▁majoring
▁measures
▁operator
▁overchar
▁pancakes
▁payments
▁portions
▁speeding
▁stealing
▁superbad
▁thirties
▁turnover
▁utensils
▁wondered
▁Agreement
▁Forbidden
▁Macmillan
▁Saturdays
▁amendment
▁briefcase
▁certified
▁christmas
▁delighted
▁envelopes
▁hardcover
▁increases
▁infection
▁inventory
▁investing
▁investors
▁itinerary
▁leftovers
▁medicines
▁movements
▁mushrooms
▁objective
▁operating
▁promising
▁providing
▁repairing
▁technique
▁terrified
▁treadmill
▁Employment
▁Wangfujing
▁accustomed
▁beneficial
▁complained
▁connecting
▁engagement
▁equivalent
▁evaluation
▁forgetting
▁indication
▁industries
▁initiative
▁journalism
▁protection
▁psychology
▁reconsider
▁reschedule
▁thirteenth
▁tournament
▁unbearable
conditioning
▁appropriate
▁conferences
▁earthquakes
▁expressions
▁handicapped
▁informative
▁necessarily
▁programming
▁publication
▁significant
▁translation
▁unfurnished
▁applications
▁architecture
▁calculations
▁championship
▁interviewers
▁receptionist
▁accommodation
▁disadvantages
▁pronunciation
▁thunderstorms
▁Administration
!!
1,
3,
70
AP
ET
ev
je
ki
qi
100
200
:45
bre
car
cke
esy
hop
iar
ila
itz
jam
ked
lph
nee
oop
tim
two
una
urd
urf
▁%,
▁34
▁41
▁6,
▁Ap
▁Ca
▁Cu
▁Cy
▁Fu
▁Ox
▁Xi
▁dy
▁ii
Card
ador
alse
amer
anke
anny
apes
ault
cket
ears
hent
iors
iscu
issa
ived
lims
nine
ompl
orse
oted
otta
owed
phew
plug
rail
rast
real
rics
ront
sman
stra
▁12,
▁123
▁130
▁15,
▁260
▁Alp
▁Ass
▁Atl
▁Bon
▁Den
▁Dra
▁Ent
▁FOB
▁Fed
▁Gal
▁Hah
▁Luc
▁Mao
▁Min
▁Pls
▁Pur
▁Roy
▁Shi
▁Vis
▁Yet
▁awk
▁ber
▁dot
▁err
▁mac
▁oak
▁pim
▁sav
▁tab
▁tee
▁urg
▁voc
▁zip
asher
ashes
ateur
berty
celer
ckham
craft
ctual
earch
elong
eroom
erous
hetic
ifies
isher
izers
jamas
mpire
olite
oodle
order
ridge
shirt
stant
stile
story
table
terol
uedog
uries
uting
wered
woman
▁1:30
▁2008
▁5:30
▁Abby
▁Alan
▁Boys
▁Bure
▁Cola
▁Ever
▁Find
▁Food
▁Ford
▁Hist
▁Jake
▁Jeff
▁Join
▁Karl
▁Kobe
▁Line
▁Macy
▁Mona
▁Myra
▁Nons
▁Pete
▁Qing
▁Rice
▁Ross
▁Ruth
▁Sher
▁Vick
▁XXXX
▁Yale
▁Yoga
▁bang
▁bark
▁bugs
▁cass
▁chub
▁cong
▁cops
▁crew
▁cube
▁curb
▁damp
▁desp
▁ease
▁edit
▁fake
▁flor
▁guns
▁gymn
▁iPod
▁knee
▁pond
▁rack
▁rehe
▁seek
▁snee
▁stap
▁stun
▁subt
▁teah
▁tent
▁tube
▁turb
▁vast
▁vend
▁wing
▁wore
XXXXXX
astics
cribed
dollar
ervice
etchup
hentic
igence
ington
itness
ixture
leaded
mitted
olitan
ometer
ounter
season
shaped
sitter
thirty
ulting
▁Being
▁Catch
▁Child
▁Chris
▁Doing
▁Fancy
▁Fifth
▁Fifty
▁Kathy
▁Paula
▁Robin
▁Smell
▁Tracy
▁Woods
▁Write
▁Wyatt
▁aches
▁alike
▁alley
▁bears
▁bikin
▁blows
▁bound
▁cheek
▁downs
▁drank
▁dryer
▁enlar
▁error
▁explo
▁faint
▁false
▁fares
▁filed
▁freak
▁freck
▁hoped
▁idiot
▁irrit
▁lunar
▁meets
▁outer
▁owned
▁picky
▁prett
▁prime
▁rally
▁renov
▁shell
▁shred
▁simpl
▁spons
▁stopw
▁thats
▁toner
▁trail
▁vital
▁wages
▁wagon
▁wider
▁wrink
▁youth
brother
duction
entials
ickness
ificent
limited
respond
▁101-98
▁12,000
▁Anyhow
▁Anyone
▁Bridge
▁Dollar
▁Graham
▁Island
▁Lester
▁Marcia
▁Oxford
▁Rather
▁Smiths
▁Temple
▁Vargas
▁aboard
▁albums
▁assemb
▁assume
▁awards
▁basics
▁biking
▁bitter
▁boards
▁bodies
▁bullet
▁canned
▁castle
▁cheesy
▁choles
▁closet
▁clouds
▁colder
▁commod
▁coupon
▁criter
▁dealer
▁donate
▁earned
▁fatter
▁folder
▁fundam
▁gloves
▁harass
▁hearts
▁horosc
▁hotpot
▁hotter
▁layout
▁league
▁loudly
▁manual
▁margar
▁multip
▁muscle
▁mutton
▁napkin
▁native
▁nephew
▁newest
▁nicely
▁onions
▁orient
▁overhe
▁parlor
▁peanut
▁pillow
▁polish
▁rabbit
▁refill
▁rivers
▁routes
▁scored
▁snakes
▁sorrow
▁spends
▁spices
▁steady
▁tested
▁thrift
▁throws
▁tiring
▁tracks
▁tricky
▁update
▁varies
▁violin
distance
personal
▁Capital
▁Chicken
▁Consult
▁Economy
▁Embassy
▁Firstly
▁Frankly
▁Haunted
▁Melissa
▁Parents
▁Peckham
▁Stephan
▁Theater
▁Tonight
▁acceler
▁allergy
▁amateur
▁appears
▁approve
▁arguing
▁aspects
▁awkward
▁bluedog
▁breasts
▁burgers
▁compact
▁confess
▁content
▁cubicle
▁cuisine
▁curious
▁cycling
▁damages
▁decline
▁defense
▁descend
▁embassy
▁errands
▁experts
▁federal
▁fireman
▁fulfill
▁greater
▁hackers
▁hairsty
▁handled
▁instant
▁ketchup
▁lighter
▁loading
▁loyalty
▁majored
▁nowhere
▁pajamas
▁pendant
▁pension
▁peppers
▁placing
▁profits
▁protest
▁puppies
▁pushing
▁refused
▁remains
▁renting
▁resolve
▁retreat
▁revenue
▁ringing
▁satisfy
▁shocked
▁shorten
▁squeeze
▁superst
▁trivial
▁unlucky
▁updated
▁upgrade
▁vanilla
▁veggies
▁wanting
▁wasting
▁workout
rehensive
▁Consumer
▁Gambling
▁Recently
▁Students
▁Studying
▁administ
▁ambition
▁answered
▁attorney
▁beginner
▁benefici
▁bothered
▁caffeine
▁comedies
▁conflict
▁coughing
▁declared
▁decrease
▁dreadful
▁dropping
▁eighteen
▁eligible
▁entering
▁equipped
▁facility
▁figuring
▁galaxies
▁gracious
▁handyman
▁headquar
▁historic
▁homeroom
▁impolite
▁interior
▁kindness
▁lectures
▁lifetime
▁listened
▁majority
▁numerous
▁officers
▁portable
▁produces
▁prospect
▁relation
▁relative
▁relieved
▁reminded
▁slippers
▁slippery
▁starters
▁strongly
▁sympathy
▁theaters
▁tomatoes
▁urgently
▁Beautiful
▁Chinatown
▁Economics
▁Financial
▁Meanwhile
▁accompany
▁affection
▁arranging
▁authentic
▁authority
▁broadband
▁cheesebur
▁chemicals
▁consumers
▁continued
▁crossword
▁fireworks
▁gentleman
▁headlines
▁hospitals
▁implement
▁increased
▁marriages
▁pointless
▁processed
▁producing
▁scientist
▁screaming
▁standards
▁suitcases
▁teenagers
▁tornadoes
▁traveller
▁turnstile
▁underwear
▁warehouse
▁Exhibition
▁Friendship
▁Westerners
▁XXXXXXXXXX
▁artificial
▁babysitter
▁beforehand
▁cappuccino
▁correspond
▁dishwasher
▁guaranteed
▁managerial
▁meaningful
▁productive
▁punishment
▁reasonably
▁separately
▁turbulence
▁Reservation
▁Shakespeare
▁achievement
▁arbitration
▁cholesterol
▁consignment
▁demonstrate
▁electrician
▁importantly
▁instruction
▁magnificent
▁orientation
▁salesperson
▁spectacular
▁threatening
▁cancellation
▁construction
▁corporations
▁housekeeping
▁transferring
▁transmission
▁complimentary
▁establishment
▁grandchildren
▁investigation
▁participation
▁professionals
▁administrative
▁organizational
▁acknowledgments
-4
-7
3-
36
89
AD
CR
MB
af
ca
sk
td
uh
86,
SAP
abe
abs
awa
ban
bar
bat
dao
dha
die
dri
elf
emi
fry
huh
imp
ini
isl
jin
ker
lig
mar
nif
not
org
oto
oty
pal
ril
shi
tub
uit
wns
wra
xas
▁48
▁59
▁66
▁7:
▁DJ
▁Ri
▁Ur
▁ho
▁lt
▁pi
aken
arer
bean
bows
bust
date
ders
etho
gars
heng
hose
ibar
ikes
inee
lene
lind
list
name
nish
offs
onne
onto
ools
ords
orms
part
rage
roof
sels
tech
that
turn
uffy
uise
ulpt
unks
zart
zers
▁$20
▁160
▁350
▁Add
▁Ave
▁Cam
▁Cra
▁Div
▁Eat
▁Ecu
▁Egg
▁GPA
▁Ire
▁Kit
▁Kun
▁Lim
▁Log
▁Ltd
▁Nor
▁Ott
▁Pin
▁Ren
▁Tor
▁Tot
▁USA
▁VCR
▁Ven
▁Wen
▁Www
▁Zhu
▁avo
▁blo
▁ple
▁por
▁rat
▁rud
▁soy
▁tum
▁voy
▁wel
ademy
aired
akery
alley
allow
anche
asier
asted
atell
backs
crack
ctive
ibles
iffel
itary
itles
itzer
ively
level
lfare
nifer
ogram
onent
onica
oogle
orado
point
sized
ublic
ughed
ulars
ument
▁1050
▁4000
▁5000
▁9:30
▁ASAP
▁Band
▁Bark
▁Beam
▁Bott
▁Cart
▁Cels
▁Coll
▁Conc
▁Dong
▁Drop
▁Febr
▁Femi
▁Full
▁Hank
▁Horn
▁Hosp
▁
e
t
o
a
n
i
s
r
h
l
u
d
y
m
c
g
w
f
p
I
b
k
,
'
v
W
T
Y
H
A
S
O
M
x
j
C
D
B
N
0
-
L
G
E
q
P
F
1
J
K
R
z
2
V
5
3
U
8
6
4
$
9
7
:
"
;
%
(
)
Z
X
/
Q
”
?
“
—
!
.
&
‘
。
£
–

@
+
~
*

¥
′
_
°
\
、
=
#
